unsigned char modelo_placa_int8[] = {
  0x20, 0x00, 0x00, 0x00, 0x54, 0x46, 0x4c, 0x33, 0x00, 0x00, 0x00, 0x00, 
  0x14, 0x00, 0x20, 0x00, 0x1c, 0x00, 0x18, 0x00, 0x14, 0x00, 0x10, 0x00, 
  0x0c, 0x00, 0x00, 0x00, 0x08, 0x00, 0x04, 0x00, 0x14, 0x00, 0x00, 0x00, 
  0x1c, 0x00, 0x00, 0x00, 0x90, 0x00, 0x00, 0x00, 0xe8, 0x00, 0x00, 0x00, 
  0xf8, 0x1a, 0x00, 0x00, 0x08, 0x1b, 0x00, 0x00, 0x64, 0x39, 0x00, 0x00, 
  0x03, 0x00, 0x00, 0x00, 0x01, 0x00, 0x00, 0x00, 0x10, 0x00, 0x00, 0x00, 
  0x00, 0x00, 0x0a, 0x00, 0x10, 0x00, 0x0c, 0x00, 0x08, 0x00, 0x04, 0x00, 
  0x0a, 0x00, 0x00, 0x00, 0x0c, 0x00, 0x00, 0x00, 0x1c, 0x00, 0x00, 0x00, 
  0x3c, 0x00, 0x00, 0x00, 0x0f, 0x00, 0x00, 0x00, 0x73, 0x65, 0x72, 0x76, 
  0x69, 0x6e, 0x67, 0x5f, 0x64, 0x65, 0x66, 0x61, 0x75, 0x6c, 0x74, 0x00, 
  0x01, 0x00, 0x00, 0x00, 0x04, 0x00, 0x00, 0x00, 0x98, 0xff, 0xff, 0xff, 
  0x15, 0x00, 0x00, 0x00, 0x04, 0x00, 0x00, 0x00, 0x0b, 0x00, 0x00, 0x00, 
  0x71, 0x75, 0x61, 0x6e, 0x74, 0x5f, 0x64, 0x65, 0x6e, 0x73, 0x65, 0x00, 
  0x01, 0x00, 0x00, 0x00, 0x04, 0x00, 0x00, 0x00, 0xee, 0xe4, 0xff, 0xff, 
  0x04, 0x00, 0x00, 0x00, 0x07, 0x00, 0x00, 0x00, 0x69, 0x6e, 0x70, 0x75, 
  0x74, 0x5f, 0x31, 0x00, 0x02, 0x00, 0x00, 0x00, 0x34, 0x00, 0x00, 0x00, 
  0x04, 0x00, 0x00, 0x00, 0xdc, 0xff, 0xff, 0xff, 0x18, 0x00, 0x00, 0x00, 
  0x04, 0x00, 0x00, 0x00, 0x13, 0x00, 0x00, 0x00, 0x43, 0x4f, 0x4e, 0x56, 
  0x45, 0x52, 0x53, 0x49, 0x4f, 0x4e, 0x5f, 0x4d, 0x45, 0x54, 0x41, 0x44, 
  0x41, 0x54, 0x41, 0x00, 0x08, 0x00, 0x0c, 0x00, 0x08, 0x00, 0x04, 0x00, 
  0x08, 0x00, 0x00, 0x00, 0x17, 0x00, 0x00, 0x00, 0x04, 0x00, 0x00, 0x00, 
  0x13, 0x00, 0x00, 0x00, 0x6d, 0x69, 0x6e, 0x5f, 0x72, 0x75, 0x6e, 0x74, 
  0x69, 0x6d, 0x65, 0x5f, 0x76, 0x65, 0x72, 0x73, 0x69, 0x6f, 0x6e, 0x00, 
  0x19, 0x00, 0x00, 0x00, 0x0c, 0x1a, 0x00, 0x00, 0x04, 0x1a, 0x00, 0x00, 
  0xec, 0x19, 0x00, 0x00, 0x4c, 0x19, 0x00, 0x00, 0xfc, 0x18, 0x00, 0x00, 
  0xf4, 0x18, 0x00, 0x00, 0x54, 0x18, 0x00, 0x00, 0x04, 0x18, 0x00, 0x00, 
  0xfc, 0x17, 0x00, 0x00, 0xec, 0x15, 0x00, 0x00, 0x5c, 0x15, 0x00, 0x00, 
  0x54, 0x15, 0x00, 0x00, 0x24, 0x14, 0x00, 0x00, 0x94, 0x13, 0x00, 0x00, 
  0x8c, 0x13, 0x00, 0x00, 0x7c, 0x0b, 0x00, 0x00, 0x6c, 0x0a, 0x00, 0x00, 
  0x64, 0x0a, 0x00, 0x00, 0x5c, 0x0a, 0x00, 0x00, 0x4c, 0x01, 0x00, 0x00, 
  0xac, 0x00, 0x00, 0x00, 0xa4, 0x00, 0x00, 0x00, 0x9c, 0x00, 0x00, 0x00, 
  0x7c, 0x00, 0x00, 0x00, 0x04, 0x00, 0x00, 0x00, 0xc6, 0xe5, 0xff, 0xff, 
  0x04, 0x00, 0x00, 0x00, 0x68, 0x00, 0x00, 0x00, 0x10, 0x00, 0x00, 0x00, 
  0x00, 0x00, 0x00, 0x00, 0x08, 0x00, 0x0e, 0x00, 0x08, 0x00, 0x04, 0x00, 
  0x08, 0x00, 0x00, 0x00, 0x10, 0x00, 0x00, 0x00, 0x2c, 0x00, 0x00, 0x00, 
  0x00, 0x00, 0x06, 0x00, 0x08, 0x00, 0x04, 0x00, 0x06, 0x00, 0x00, 0x00, 
  0x04, 0x00, 0x00, 0x00, 0x02, 0x00, 0x00, 0x00, 0xeb, 0x03, 0x00, 0x00, 
  0xd0, 0x07, 0x00, 0x00, 0x0c, 0x00, 0x18, 0x00, 0x14, 0x00, 0x10, 0x00, 
  0x0c, 0x00, 0x04, 0x00, 0x0c, 0x00, 0x00, 0x00, 0x18, 0x10, 0x04, 0x3f, 
  0x4f, 0xf5, 0xf6, 0x30, 0x02, 0x00, 0x00, 0x00, 0x02, 0x00, 0x00, 0x00, 
  0x04, 0x00, 0x00, 0x00, 0x06, 0x00, 0x00, 0x00, 0x32, 0x2e, 0x32, 0x30, 
  0x2e, 0x30, 0x00, 0x00, 0x3a, 0xe6, 0xff, 0xff, 0x04, 0x00, 0x00, 0x00, 
  0x10, 0x00, 0x00, 0x00, 0x31, 0x2e, 0x31, 0x34, 0x2e, 0x30, 0x00, 0x00, 
  0x00, 0x00, 0x00, 0x00, 0x00, 0x00, 0x00, 0x00, 0x40, 0xc9, 0xff, 0xff, 
  0x44, 0xc9, 0xff, 0xff, 0x5e, 0xe6, 0xff, 0xff, 0x04, 0x00, 0x00, 0x00, 
  0x90, 0x00, 0x00, 0x00, 0x17, 0xfe, 0xff, 0xff, 0xfb, 0xff, 0xff, 0xff, 
  0x8c, 0x01, 0x00, 0x00, 0x39, 0x00, 0x00, 0x00, 0x85, 0x00, 0x00, 0x00, 
  0x9c, 0xfd, 0xff, 0xff, 0x85, 0xff, 0xff, 0xff, 0x6c, 0x00, 0x00, 0x00, 
  0x36, 0xfe, 0xff, 0xff, 0xa4, 0xfe, 0xff, 0xff, 0xf3, 0xff, 0xff, 0xff, 
  0x46, 0xfc, 0xff, 0xff, 0xd4, 0x02, 0x00, 0x00, 0x9d, 0xfb, 0xff, 0xff, 
  0xe1, 0x00, 0x00, 0x00, 0x18, 0x00, 0x00, 0x00, 0x78, 0x02, 0x00, 0x00, 
  0xd4, 0x00, 0x00, 0x00, 0x01, 0xff, 0xff, 0xff, 0x6e, 0xfe, 0xff, 0xff, 
  0xaf, 0x01, 0x00, 0x00, 0xdd, 0xfc, 0xff, 0xff, 0x59, 0xfe, 0xff, 0xff, 
  0x65, 0xff, 0xff, 0xff, 0x1d, 0xfe, 0xff, 0xff, 0x80, 0xff, 0xff, 0xff, 
  0x07, 0xff, 0xff, 0xff, 0x7e, 0xfe, 0xff, 0xff, 0x62, 0x00, 0x00, 0x00, 
  0xda, 0xfd, 0xff, 0xff, 0xd0, 0xff, 0xff, 0xff, 0x5f, 0x01, 0x00, 0x00, 
  0xdb, 0x00, 0x00, 0x00, 0xa7, 0x03, 0x00, 0x00, 0x80, 0x01, 0x00, 0x00, 
  0xf4, 0x02, 0x00, 0x00, 0xfa, 0xe6, 0xff, 0xff, 0x04, 0x00, 0x00, 0x00, 
  0x00, 0x09, 0x00, 0x00, 0xfc, 0x04, 0xd0, 0xf7, 0xf6, 0xff, 0xff, 0xfc, 
  0x02, 0x0d, 0xff, 0xe0, 0xf4, 0xdf, 0xfa, 0xf8, 0xfe, 0x07, 0x09, 0x0c, 
  0xfb, 0x0b, 0x08, 0xee, 0xfb, 0xf6, 0xf8, 0xfd, 0xf8, 0x09, 0x0c, 0xeb, 
  0xfb, 0xc0, 0x1b, 0xf6, 0x04, 0xf3, 0xf5, 0xf7, 0x07, 0x07, 0x01, 0xd4, 
  0xe1, 0xab, 0x08, 0xf6, 0x04, 0x05, 0xfc, 0x0b, 0x09, 0x08, 0x0d, 0xe0, 
  0x00, 0xe7, 0xf6, 0x12, 0x09, 0x10, 0xa1, 0xfd, 0xd5, 0xf2, 0x03, 0xb7, 
  0x00, 0x01, 0x0a, 0x10, 0x04, 0xe0, 0xcc, 0xe1, 0x07, 0x05, 0xf5, 0x0e, 
  0xdc, 0x05, 0x11, 0xbc, 0x07, 0x01, 0xeb, 0x0d, 0x0e, 0x0b, 0xc6, 0x18, 
  0x0e, 0xf9, 0x09, 0x0b, 0xec, 0xca, 0xe8, 0x0d, 0xd1, 0xf4, 0x0f, 0xfc, 
  0xef, 0xda, 0xfe, 0xff, 0x04, 0xf4, 0x0d, 0x0f, 0xf7, 0x0d, 0x11, 0x02, 
  0xdd, 0xd8, 0x10, 0x05, 0x13, 0xd4, 0xd0, 0x12, 0xc9, 0x13, 0xc2, 0xf2, 
  0xf9, 0xf9, 0x06, 0x08, 0xfd, 0xda, 0x08, 0x1a, 0x0d, 0xb2, 0x0c, 0xfb, 
  0x1d, 0x06, 0xf9, 0x0a, 0xed, 0x01, 0xe8, 0x07, 0x10, 0x00, 0xcf, 0x81, 
  0x06, 0x0a, 0xe4, 0x19, 0x06, 0xd9, 0xfb, 0xfe, 0xe9, 0xe3, 0xf7, 0x09, 
  0xeb, 0xd2, 0x07, 0xf4, 0xe9, 0x0b, 0xd1, 0xe7, 0x07, 0xd2, 0x0a, 0x04, 
  0xdc, 0x12, 0x0a, 0xf4, 0xf5, 0xea, 0xec, 0xf4, 0xe4, 0xca, 0xff, 0xee, 
  0x05, 0x28, 0xd6, 0xf3, 0xf9, 0xaa, 0xef, 0x07, 0xfe, 0xa1, 0x00, 0x05, 
  0xff, 0xc0, 0x01, 0xe7, 0xfd, 0xe6, 0xf5, 0x0a, 0xdf, 0xfc, 0xf2, 0x09, 
  0x0d, 0x18, 0x99, 0xbf, 0x06, 0x0b, 0xee, 0x12, 0x0b, 0x86, 0xfc, 0x06, 
  0xd1, 0x06, 0xf2, 0x0b, 0x08, 0x07, 0x09, 0xff, 0xcc, 0x06, 0x94, 0xfb, 
  0x11, 0xe2, 0xff, 0x07, 0x09, 0xf5, 0x0c, 0xf9, 0x06, 0xed, 0xf1, 0xe5, 
  0xf2, 0x09, 0x05, 0xe1, 0x08, 0x40, 0x18, 0x07, 0x03, 0xe5, 0x01, 0xb4, 
  0xf8, 0xf2, 0x16, 0x08, 0xf3, 0xd7, 0x03, 0xf0, 0x18, 0x04, 0xfa, 0x0a, 
  0xf3, 0x03, 0x03, 0xca, 0xfe, 0xf2, 0xda, 0x17, 0x06, 0x09, 0x09, 0xfd, 
  0x08, 0xe3, 0xf9, 0x1c, 0x04, 0xc8, 0xd6, 0x08, 0xe6, 0xeb, 0x08, 0x06, 
  0xf7, 0xf3, 0xf5, 0xd6, 0x1d, 0x10, 0x05, 0x0a, 0xdb, 0x08, 0x09, 0xfb, 
  0x04, 0xe5, 0xff, 0x2b, 0x0f, 0xe4, 0x9a, 0xfe, 0xd2, 0x01, 0xdf, 0xfb, 
  0xf5, 0x03, 0x13, 0x03, 0xfb, 0xf7, 0x0b, 0x0c, 0x0c, 0xe6, 0x07, 0xee, 
  0x04, 0x08, 0x06, 0x04, 0xeb, 0xf8, 0xd5, 0x07, 0x03, 0xf5, 0xf7, 0x96, 
  0x06, 0x09, 0xd9, 0x00, 0x06, 0x02, 0xf3, 0xf6, 0xcc, 0xfb, 0xe9, 0x07, 
  0xf7, 0xf9, 0x06, 0xff, 0xfa, 0x07, 0xfe, 0xfd, 0x00, 0x1b, 0xf4, 0x09, 
  0xfc, 0x09, 0x0a, 0xf5, 0xd6, 0xe8, 0xd0, 0xef, 0xea, 0x07, 0xf7, 0xd0, 
  0x08, 0x01, 0x14, 0x01, 0x03, 0x0d, 0xf2, 0xf9, 0xfc, 0xf3, 0x05, 0x0e, 
  0x0c, 0x0e, 0x0f, 0xf5, 0x13, 0x01, 0x03, 0x00, 0xf5, 0x09, 0xec, 0x0a, 
  0x02, 0xf3, 0x12, 0xeb, 0x04, 0x02, 0xec, 0xfa, 0x04, 0x0d, 0xff, 0x00, 
  0x06, 0xb5, 0x00, 0x02, 0x05, 0xfb, 0x01, 0xff, 0xfd, 0x00, 0xf1, 0xd9, 
  0x01, 0x0d, 0xe8, 0x02, 0x08, 0x02, 0x03, 0x08, 0x04, 0xf0, 0xe8, 0xcc, 
  0xdb, 0x01, 0xec, 0xdb, 0x08, 0xf4, 0xa7, 0xf9, 0x9d, 0xe5, 0xfd, 0x29, 
  0xf1, 0xe6, 0xf5, 0xbf, 0xe8, 0xda, 0x0e, 0xd0, 0x04, 0xe0, 0xf4, 0x08, 
  0x04, 0xf2, 0x11, 0xc4, 0x0e, 0x08, 0xe1, 0xff, 0x07, 0x09, 0xd3, 0xe3, 
  0x09, 0xec, 0x0a, 0xd0, 0xe3, 0x19, 0x12, 0x08, 0xc6, 0xf0, 0x0a, 0xf4, 
  0xea, 0xc1, 0xe8, 0xff, 0xe5, 0xfd, 0xd1, 0x0d, 0xb9, 0x1c, 0x0c, 0xf7, 
  0xda, 0xed, 0x13, 0xfb, 0x12, 0xda, 0x23, 0x10, 0xc2, 0xf8, 0x1a, 0xc7, 
  0x09, 0xd9, 0xe1, 0xfd, 0xfa, 0xb0, 0x01, 0x08, 0x02, 0x1c, 0x00, 0xf4, 
  0x15, 0x03, 0x07, 0x01, 0xf1, 0x03, 0xe9, 0x07, 0x09, 0x0f, 0x14, 0xd9, 
  0x05, 0x04, 0x0b, 0x0c, 0x03, 0xd0, 0x04, 0x07, 0xf8, 0xd7, 0xf8, 0x02, 
  0x16, 0x11, 0x02, 0xfc, 0xdf, 0xff, 0xa2, 0xc8, 0x05, 0xc5, 0xef, 0x03, 
  0x0d, 0xec, 0x05, 0xfd, 0x16, 0x02, 0xed, 0xf0, 0xde, 0xf2, 0xfc, 0xce, 
  0x05, 0x14, 0xc1, 0xec, 0xf7, 0xd8, 0xcc, 0x02, 0xf6, 0xda, 0x04, 0xfa, 
  0x00, 0xfc, 0x08, 0xd1, 0x04, 0xda, 0x00, 0x05, 0xec, 0xf0, 0x14, 0x0e, 
  0x0f, 0x15, 0xed, 0xe0, 0x04, 0x09, 0xf5, 0xf9, 0x06, 0xd9, 0xf7, 0xf7, 
  0xec, 0xf4, 0x13, 0x05, 0x03, 0xec, 0x05, 0xf7, 0xe6, 0x0a, 0xcb, 0xec, 
  0x0f, 0xac, 0x06, 0x05, 0xfd, 0x04, 0x08, 0x0c, 0xfe, 0xf5, 0x14, 0xfc, 
  0x10, 0xf8, 0x00, 0x14, 0x0b, 0x15, 0xd3, 0xf5, 0x00, 0x05, 0xe8, 0xb8, 
  0xf7, 0xeb, 0xf4, 0xe3, 0xfb, 0xc7, 0xe7, 0xff, 0x19, 0x06, 0xfe, 0x02, 
  0xdd, 0xeb, 0x07, 0x0b, 0xfb, 0xe0, 0xd5, 0x01, 0x02, 0x01, 0x10, 0xfd, 
  0x02, 0xff, 0xfe, 0x16, 0x06, 0xd7, 0xe8, 0x02, 0xfd, 0xff, 0x00, 0x09, 
  0xf7, 0x12, 0xf5, 0xe9, 0x1d, 0xdb, 0x1d, 0x03, 0xef, 0xe8, 0x05, 0xff, 
  0xfe, 0xfa, 0xf9, 0x22, 0x1d, 0xea, 0xb4, 0x03, 0x13, 0x01, 0xe6, 0x0a, 
  0xfe, 0x10, 0xed, 0x00, 0xfb, 0x0f, 0x00, 0x0a, 0x05, 0xf4, 0x00, 0xf0, 
  0x0e, 0x0e, 0x05, 0xf6, 0xdb, 0xf8, 0xbe, 0xfd, 0x03, 0xff, 0x07, 0xf1, 
  0xf6, 0xf6, 0xfe, 0x0a, 0xfa, 0x15, 0xfb, 0xfe, 0x01, 0xfa, 0xf6, 0xf5, 
  0x03, 0x0a, 0xf6, 0xfd, 0x06, 0xf7, 0x11, 0xf8, 0x0a, 0xda, 0xe4, 0xf6, 
  0xfa, 0xe2, 0xf7, 0x00, 0x0d, 0x06, 0xd1, 0x07, 0xb3, 0x0f, 0xfc, 0xb0, 
  0xf7, 0x06, 0x06, 0x17, 0xf7, 0xed, 0xfc, 0x01, 0xfd, 0xf0, 0x12, 0xfc, 
  0x07, 0x16, 0x00, 0x14, 0xe9, 0xfe, 0x0d, 0x05, 0x15, 0xee, 0x06, 0x04, 
  0x00, 0xe7, 0x07, 0x0b, 0x00, 0x00, 0xfa, 0x07, 0x01, 0xfd, 0x0d, 0xe3, 
  0xfb, 0xdb, 0xf8, 0x00, 0x05, 0xfa, 0xfd, 0x08, 0xec, 0xf9, 0xef, 0xf4, 
  0xb7, 0x09, 0xed, 0xfd, 0x04, 0x14, 0x03, 0xfa, 0xff, 0xf0, 0x04, 0xd4, 
  0x03, 0xdd, 0xff, 0x04, 0x04, 0xd0, 0xd1, 0xbc, 0xf9, 0x06, 0xf3, 0xff, 
  0xf7, 0x0c, 0x04, 0x04, 0x09, 0xf0, 0xfc, 0xec, 0xfe, 0x04, 0xff, 0xec, 
  0xe5, 0x05, 0xff, 0x08, 0xf7, 0x07, 0xfa, 0xe0, 0xf1, 0xef, 0xf1, 0x04, 
  0xf1, 0x09, 0xfb, 0xe6, 0xfe, 0xf7, 0x15, 0xf0, 0xed, 0xe6, 0xec, 0xf5, 
  0x0c, 0x04, 0x0c, 0x03, 0xdf, 0xc1, 0x08, 0xf1, 0xfb, 0xf6, 0xf2, 0xf8, 
  0xf4, 0x07, 0xff, 0xfa, 0xfa, 0x0c, 0xff, 0x09, 0x06, 0x12, 0xfb, 0x10, 
  0xfd, 0x09, 0x0f, 0x05, 0xfa, 0x09, 0x10, 0x06, 0x08, 0x0a, 0x02, 0x13, 
  0x12, 0x18, 0xfe, 0xf8, 0xf0, 0xfd, 0xc5, 0xd1, 0x02, 0xca, 0x0f, 0xfa, 
  0xfa, 0xfa, 0xfa, 0x0b, 0xfa, 0x12, 0x04, 0xf5, 0x0c, 0xff, 0xcb, 0xf6, 
  0xd2, 0xfa, 0xf9, 0xf6, 0xfb, 0xe1, 0x0d, 0xff, 0xf3, 0x0d, 0xc5, 0xf9, 
  0xec, 0xf9, 0xf8, 0x02, 0xf7, 0xfb, 0xb5, 0x02, 0xcc, 0xfa, 0xfd, 0xb8, 
  0xcb, 0xc6, 0x0d, 0x13, 0xee, 0x0e, 0x09, 0x16, 0xf2, 0x0d, 0xf5, 0xf9, 
  0xfa, 0x03, 0x0f, 0x09, 0xfe, 0x11, 0x0a, 0x04, 0xf5, 0x0c, 0xdc, 0xbf, 
  0xf5, 0xd0, 0x09, 0x0d, 0x05, 0x04, 0xe5, 0xe0, 0x05, 0x11, 0xf5, 0xfb, 
  0x01, 0x0b, 0xd1, 0x04, 0xd2, 0x01, 0x06, 0xf7, 0xf9, 0xe3, 0x0f, 0x01, 
  0xf4, 0x0b, 0xe0, 0x05, 0xea, 0xda, 0x05, 0xff, 0xe3, 0xed, 0xcf, 0x0b, 
  0xe9, 0x17, 0x11, 0xd3, 0xbd, 0xcf, 0x0c, 0x07, 0xf6, 0xe9, 0xfa, 0x03, 
  0xfa, 0xe7, 0x11, 0xf8, 0x02, 0x0d, 0x03, 0x0e, 0xf1, 0x02, 0xf8, 0xf5, 
  0x0b, 0x0d, 0x0c, 0x00, 0x01, 0xf7, 0x07, 0x08, 0xf2, 0xf4, 0xf4, 0x01, 
  0xf6, 0xf8, 0xf3, 0xe9, 0x06, 0xfb, 0xe5, 0xf3, 0xfe, 0xf7, 0xf2, 0xfb, 
  0xf0, 0xf8, 0xdd, 0x01, 0xf9, 0x0b, 0xeb, 0xed, 0xfc, 0x03, 0xf5, 0x00, 
  0x08, 0x04, 0x0c, 0xe4, 0xff, 0xfe, 0x03, 0x13, 0x00, 0xf4, 0xf4, 0xe6, 
  0xf5, 0xff, 0xf9, 0xe0, 0xf6, 0x09, 0xf1, 0xe6, 0xea, 0xf8, 0xeb, 0x11, 
  0x0c, 0x1a, 0x0b, 0xf0, 0x06, 0xff, 0x08, 0xa9, 0xe8, 0xfa, 0x00, 0x13, 
  0xee, 0xef, 0xec, 0xec, 0xf0, 0x07, 0x05, 0x07, 0x04, 0xf1, 0xeb, 0xed, 
  0xcb, 0x00, 0xea, 0xfa, 0x04, 0xe5, 0x07, 0x07, 0x0c, 0x08, 0x06, 0xee, 
  0xfb, 0xe0, 0xee, 0xf3, 0xf8, 0x06, 0x06, 0x1a, 0x04, 0x19, 0xe5, 0x0b, 
  0xb3, 0x0a, 0x0b, 0x0b, 0xc8, 0xf9, 0x0c, 0xfa, 0xf7, 0x07, 0xfd, 0x04, 
  0xfb, 0xea, 0xf3, 0xee, 0xf3, 0x01, 0xf5, 0x0a, 0xdb, 0x0c, 0x0b, 0xd4, 
  0xf7, 0xf5, 0xf6, 0x10, 0x0d, 0x0e, 0xc6, 0x06, 0x0b, 0x01, 0xfc, 0x08, 
  0xef, 0xf5, 0xeb, 0x0e, 0xdf, 0xd9, 0x0c, 0xfb, 0xf4, 0xe8, 0x06, 0x08, 
  0xdf, 0x0c, 0x03, 0x0d, 0xf4, 0xce, 0x0d, 0x01, 0xc4, 0xd6, 0x0a, 0xed, 
  0x0c, 0xd1, 0xf9, 0x0d, 0xdb, 0x02, 0xfd, 0xf5, 0xe3, 0xf2, 0x01, 0xe9, 
  0x02, 0xfe, 0x1e, 0xd0, 0x05, 0xf3, 0xf1, 0xce, 0xc0, 0xe2, 0x07, 0x08, 
  0xe9, 0xf6, 0x06, 0xf2, 0xe5, 0x09, 0xf4, 0x01, 0x0b, 0x0a, 0xce, 0x04, 
  0x0a, 0xf9, 0x06, 0xee, 0xd7, 0x0e, 0x0c, 0x0a, 0xfd, 0xed, 0x0a, 0x0b, 
  0xf7, 0xec, 0xfe, 0x15, 0xea, 0x09, 0xf8, 0x0b, 0xfd, 0xff, 0x0b, 0xf4, 
  0xe1, 0xe9, 0x09, 0xc8, 0x09, 0xf6, 0xed, 0x0d, 0xf1, 0x14, 0x12, 0xea, 
  0xff, 0x10, 0x10, 0xcf, 0xf8, 0x0e, 0xeb, 0x10, 0xfc, 0xfc, 0xcc, 0x1f, 
  0xe5, 0xe8, 0xfa, 0xf7, 0x00, 0xfb, 0xea, 0x09, 0xdf, 0xbe, 0x08, 0xfc, 
  0xfa, 0xf8, 0x15, 0xe8, 0xf6, 0x14, 0x07, 0x08, 0x03, 0xdd, 0x05, 0xf4, 
  0x0f, 0x0e, 0xfa, 0xf8, 0xfb, 0x02, 0x10, 0x06, 0x02, 0x21, 0xf6, 0xf7, 
  0x04, 0xfb, 0xfb, 0x03, 0x06, 0xf7, 0xd3, 0xf0, 0xe5, 0xf1, 0xd0, 0xd3, 
  0x0a, 0xc7, 0x04, 0x03, 0xe4, 0x01, 0x11, 0xdd, 0xff, 0x07, 0x21, 0x0e, 
  0x0e, 0xfd, 0xed, 0x00, 0x0c, 0x15, 0x09, 0x03, 0xeb, 0x05, 0x00, 0xda, 
  0x01, 0xf1, 0xff, 0x02, 0x06, 0x04, 0xe3, 0x19, 0x05, 0x06, 0x05, 0xe4, 
  0xfc, 0xe2, 0xec, 0x06, 0xca, 0xd0, 0x05, 0xf8, 0xf6, 0xe4, 0x06, 0x05, 
  0xc5, 0x06, 0xf6, 0x08, 0xdc, 0xfb, 0x06, 0xff, 0xe0, 0xe7, 0xfd, 0xf6, 
  0x01, 0xe7, 0xd7, 0x02, 0xdf, 0x06, 0xf6, 0xfa, 0x08, 0xfb, 0xf9, 0xd8, 
  0xe8, 0xfd, 0xda, 0xd2, 0xdd, 0xfb, 0xa6, 0x06, 0xb9, 0xe9, 0x0d, 0xec, 
  0x0e, 0xf6, 0x09, 0x03, 0xba, 0xf7, 0xf6, 0x0b, 0xf2, 0xed, 0x26, 0xfb, 
  0xf0, 0x02, 0xf3, 0x08, 0x0a, 0xec, 0xe7, 0xec, 0xef, 0x18, 0xf0, 0xfd, 
  0x0b, 0x03, 0x01, 0xff, 0x1d, 0xfe, 0x05, 0xef, 0xf2, 0x04, 0xf0, 0x0d, 
  0x18, 0x0d, 0xff, 0x15, 0x0c, 0x0a, 0xd8, 0x0a, 0x04, 0xfe, 0x07, 0x0c, 
  0x09, 0xfe, 0xe7, 0xe5, 0xf2, 0x02, 0xc8, 0xfe, 0xcf, 0xf8, 0xc0, 0x05, 
  0xca, 0xc4, 0xf3, 0xef, 0x05, 0x0a, 0x08, 0x08, 0xd2, 0x05, 0xf4, 0x02, 
  0xf2, 0xf3, 0x15, 0xe0, 0xf7, 0x06, 0xfb, 0x19, 0x03, 0xfb, 0xeb, 0xf2, 
  0x0b, 0x0a, 0xf0, 0x0c, 0x09, 0x00, 0x08, 0x05, 0x0b, 0xfb, 0xf7, 0xf4, 
  0x0e, 0xff, 0xf8, 0x0a, 0xf9, 0x0b, 0x0a, 0xcf, 0xff, 0xfc, 0xe0, 0x0a, 
  0x0a, 0xfd, 0x0f, 0xf7, 0x00, 0x03, 0xe1, 0xfb, 0xfa, 0xfd, 0x0a, 0xfa, 
  0x07, 0x08, 0xfc, 0xf0, 0xe8, 0xf1, 0xfa, 0xf0, 0x05, 0xf2, 0x06, 0x09, 
  0xf8, 0x09, 0x03, 0xef, 0xf0, 0xee, 0xff, 0x01, 0xf1, 0x06, 0x0a, 0xeb, 
  0x00, 0xcb, 0x22, 0xed, 0x09, 0xfe, 0xea, 0x0d, 0x00, 0x07, 0xfa, 0xf4, 
  0xc9, 0xbc, 0x05, 0xee, 0x06, 0x06, 0xf5, 0xfa, 0x01, 0x08, 0x0c, 0xd8, 
  0xf8, 0xff, 0xfc, 0x0a, 0x0b, 0x0c, 0x9e, 0xfb, 0xe7, 0x0f, 0xfb, 0x16, 
  0xee, 0x0d, 0xee, 0x06, 0x01, 0xf3, 0x0d, 0xf5, 0xfc, 0xfe, 0xf1, 0x00, 
  0xdf, 0xf6, 0xe3, 0x02, 0xf7, 0xef, 0x01, 0x01, 0x04, 0x05, 0xe4, 0xd7, 
  0x02, 0x0e, 0x0e, 0xef, 0xf0, 0x0a, 0x08, 0x00, 0xe5, 0xde, 0x03, 0xfd, 
  0x07, 0xff, 0x0e, 0xfd, 0xf5, 0xcf, 0xf6, 0x04, 0xf7, 0xed, 0x04, 0x0b, 
  0xe3, 0xf7, 0xdd, 0x20, 0xe8, 0xe0, 0x12, 0xe0, 0xfd, 0xfc, 0x0a, 0x14, 
  0x00, 0xf9, 0xd4, 0xfd, 0xff, 0xf9, 0x07, 0x05, 0xf7, 0xf9, 0x07, 0x0f, 
  0xe1, 0xef, 0x0c, 0xf9, 0x0a, 0xfe, 0x05, 0x06, 0x03, 0x05, 0xfd, 0xec, 
  0xf9, 0xf8, 0xfc, 0xc9, 0xfd, 0x02, 0xf8, 0x02, 0xfe, 0xe3, 0xf5, 0xf7, 
  0x0d, 0x0f, 0xf6, 0xf3, 0x02, 0x01, 0xf7, 0xe3, 0x05, 0xda, 0xfc, 0xf7, 
  0x08, 0xfd, 0xf9, 0xf2, 0x05, 0xf9, 0x0d, 0x08, 0xf6, 0x0c, 0xfc, 0x09, 
  0x04, 0x07, 0xc3, 0xea, 0xfd, 0x10, 0xe0, 0x0f, 0xf3, 0x04, 0xde, 0x02, 
  0xe8, 0xf3, 0x07, 0x0d, 0x04, 0xf0, 0x01, 0xf0, 0xf5, 0x03, 0xe8, 0x08, 
  0xfc, 0xef, 0xfd, 0xfc, 0xf7, 0xf3, 0x0c, 0xd4, 0xf3, 0x14, 0x08, 0xfa, 
  0xfd, 0x03, 0xde, 0xf3, 0x09, 0x0e, 0xf5, 0x0c, 0x06, 0x01, 0x0a, 0xf8, 
  0x03, 0xde, 0x01, 0xf2, 0x03, 0xe3, 0xf7, 0xf6, 0x0a, 0x02, 0xe7, 0x0f, 
  0xda, 0x10, 0x0c, 0xdd, 0x06, 0xf3, 0x05, 0x13, 0x00, 0xaf, 0xf6, 0x01, 
  0xfc, 0xa8, 0x0c, 0x0f, 0x06, 0x1c, 0x08, 0xfc, 0xee, 0xfd, 0x04, 0x07, 
  0xff, 0xfe, 0xd5, 0x0d, 0x0b, 0xee, 0xfd, 0x83, 0x04, 0x08, 0xf2, 0x06, 
  0xff, 0xda, 0x0c, 0x0a, 0xed, 0xf9, 0xe5, 0x04, 0x0a, 0x00, 0x06, 0xfe, 
  0xce, 0x09, 0x9f, 0xf6, 0xf8, 0x0c, 0xf5, 0x05, 0x04, 0x0c, 0x05, 0x06, 
  0xdb, 0xf3, 0xd0, 0xdb, 0xf5, 0x06, 0xfc, 0xce, 0x0b, 0x07, 0xff, 0xb4, 
  0xe2, 0xf2, 0x04, 0x29, 0xf4, 0x06, 0xdd, 0xe4, 0xe4, 0xdf, 0x0e, 0xfb, 
  0xfa, 0xf0, 0xfb, 0xfe, 0x0b, 0xff, 0x0c, 0xb7, 0x03, 0xf5, 0xf3, 0x0c, 
  0x03, 0xff, 0xfb, 0xe1, 0x02, 0xfd, 0x0e, 0xe2, 0xe2, 0x12, 0xe4, 0x01, 
  0xd5, 0xec, 0x02, 0xf8, 0xfe, 0xba, 0x06, 0x18, 0xf8, 0x06, 0x00, 0x04, 
  0xd6, 0xcb, 0x02, 0xfc, 0x07, 0xf2, 0x02, 0xfa, 0x0a, 0xea, 0x24, 0x0c, 
  0xba, 0xfb, 0x0e, 0xee, 0xf5, 0xfd, 0x04, 0xdf, 0xf9, 0x06, 0x22, 0xc6, 
  0xfe, 0x00, 0xe1, 0x09, 0xbd, 0xef, 0x02, 0xe9, 0x12, 0xf6, 0x0a, 0xf4, 
  0xd5, 0x09, 0x03, 0x09, 0xea, 0xe9, 0xfb, 0xfd, 0xea, 0x07, 0xf1, 0xe4, 
  0xfb, 0xee, 0x10, 0xec, 0x0d, 0xf3, 0xe9, 0xfb, 0x08, 0xe4, 0x07, 0x05, 
  0xe4, 0x0c, 0x01, 0xe7, 0xfd, 0xeb, 0xed, 0xf2, 0x0b, 0x08, 0x0b, 0xe0, 
  0x02, 0xf3, 0xe2, 0x14, 0xf2, 0x0f, 0x09, 0xf4, 0x01, 0xf8, 0x0d, 0xfa, 
  0xe3, 0xf8, 0xcc, 0xcd, 0xd8, 0x1a, 0xce, 0xe9, 0xc7, 0xb6, 0x03, 0xf6, 
  0x19, 0xfb, 0x06, 0x00, 0xd1, 0x10, 0x10, 0xe4, 0xf7, 0xf8, 0xd5, 0xcd, 
  0xf8, 0xf9, 0x0e, 0x0a, 0x04, 0x01, 0x21, 0xf3, 0x03, 0xf3, 0xf8, 0xf2, 
  0xfc, 0xfe, 0xf2, 0x12, 0xc9, 0x18, 0xf8, 0xfa, 0x1a, 0x08, 0xf4, 0xfe, 
  0xf2, 0x02, 0x11, 0xa5, 0xf4, 0x07, 0xfb, 0x02, 0x07, 0xec, 0x1e, 0xe8, 
  0x0f, 0xef, 0xf0, 0xdc, 0xd3, 0x00, 0xbe, 0xa5, 0xbf, 0x13, 0xd1, 0x03, 
  0xee, 0xd2, 0xf3, 0xed, 0x19, 0xfa, 0xf9, 0xf8, 0xc8, 0x07, 0x09, 0xd9, 
  0xf3, 0xf0, 0x18, 0xdc, 0xf1, 0xfb, 0x0f, 0x09, 0x12, 0x02, 0x0d, 0xed, 
  0xf1, 0xef, 0xed, 0xf7, 0x02, 0x05, 0xf6, 0x0e, 0x08, 0x0d, 0xe0, 0xf1, 
  0x18, 0x24, 0xee, 0x00, 0x0f, 0x09, 0x01, 0xed, 0xe7, 0x11, 0xda, 0xf9, 
  0x02, 0xed, 0x26, 0xff, 0x04, 0xec, 0x08, 0xd9, 0xf4, 0xe0, 0xe0, 0xff, 
  0xf3, 0xf7, 0xbb, 0x10, 0xee, 0xe0, 0x02, 0x02, 0x01, 0x09, 0x05, 0x0c, 
  0xe6, 0xca, 0xe6, 0x0b, 0xff, 0x01, 0x09, 0xf4, 0xff, 0xca, 0xf5, 0x14, 
  0xf9, 0xf0, 0x0b, 0xfb, 0x0c, 0x0a, 0x00, 0xf9, 0xc9, 0x0a, 0xce, 0x05, 
  0x02, 0x14, 0x0d, 0xfc, 0x14, 0x11, 0x03, 0x04, 0x0d, 0xf3, 0xed, 0xf6, 
  0x0c, 0xfd, 0xd7, 0xd1, 0x0f, 0xc1, 0x1d, 0xfa, 0xfc, 0xf2, 0x12, 0xe3, 
  0xf2, 0x03, 0xd4, 0xf3, 0xdf, 0xf8, 0xb8, 0x01, 0xdb, 0xe9, 0xf8, 0x01, 
  0x0b, 0xf8, 0x08, 0x05, 0xe2, 0xf5, 0xf7, 0x0d, 0x01, 0x02, 0xd0, 0xf8, 
  0x02, 0xed, 0xfd, 0x15, 0xf8, 0xfa, 0x22, 0x02, 0x0d, 0xf5, 0x02, 0xfc, 
  0xf2, 0xfe, 0xfd, 0x0a, 0xe5, 0x1b, 0xe7, 0x02, 0x1d, 0x0d, 0x05, 0x09, 
  0xe7, 0xec, 0x0a, 0xbc, 0x05, 0xf7, 0xe8, 0xfb, 0x06, 0xce, 0x15, 0xfb, 
  0xe6, 0xeb, 0x14, 0x11, 0xf9, 0xd8, 0x0d, 0x0a, 0x06, 0xce, 0x0b, 0x07, 
  0x17, 0x0a, 0x0c, 0xfd, 0xf7, 0xed, 0xfc, 0xbd, 0x0e, 0xf6, 0xe2, 0xe0, 
  0xf8, 0x00, 0xeb, 0x13, 0xfe, 0xe7, 0x01, 0xee, 0xfe, 0x04, 0x03, 0xfd, 
  0xb3, 0xd8, 0xfd, 0xfc, 0xe7, 0xc9, 0xdc, 0x02, 0xf9, 0x08, 0xa5, 0xfc, 
  0xbc, 0x0c, 0xff, 0x04, 0x06, 0xef, 0xfe, 0x02, 0x04, 0xed, 0x08, 0xf5, 
  0xbd, 0xe4, 0x15, 0xe8, 0xf0, 0xd2, 0xff, 0xff, 0xf4, 0xd2, 0xff, 0xff, 
  0x0e, 0xf0, 0xff, 0xff, 0x04, 0x00, 0x00, 0x00, 0x00, 0x01, 0x00, 0x00, 
  0xeb, 0xff, 0xff, 0xff, 0xf6, 0xff, 0xff, 0xff, 0x00, 0x00, 0x00, 0x00, 
  0xf6, 0xff, 0xff, 0xff, 0xe3, 0xff, 0xff, 0xff, 0xf9, 0xff, 0xff, 0xff, 
  0xf5, 0xff, 0xff, 0xff, 0xfa, 0xff, 0xff, 0xff, 0xf3, 0xff, 0xff, 0xff, 
  0xf4, 0xff, 0xff, 0xff, 0xee, 0xff, 0xff, 0xff, 0x01, 0x00, 0x00, 0x00, 
  0x00, 0x00, 0x00, 0x00, 0x01, 0x00, 0x00, 0x00, 0xf6, 0xff, 0xff, 0xff, 
  0xfd, 0xff, 0xff, 0xff, 0xf6, 0xff, 0xff, 0xff, 0xf5, 0xff, 0xff, 0xff, 
  0xfc, 0xff, 0xff, 0xff, 0xf4, 0xff, 0xff, 0xff, 0xf9, 0xff, 0xff, 0xff, 
  0xff, 0xff, 0xff, 0xff, 0xee, 0xff, 0xff, 0xff, 0xfa, 0xff, 0xff, 0xff, 
  0x00, 0x00, 0x00, 0x00, 0xfc, 0xff, 0xff, 0xff, 0xf6, 0xff, 0xff, 0xff, 
  0xf6, 0xff, 0xff, 0xff, 0xff, 0xff, 0xff, 0xff, 0xfa, 0xff, 0xff, 0xff, 
  0xfd, 0xff, 0xff, 0xff, 0xf2, 0xff, 0xff, 0xff, 0xf9, 0xff, 0xff, 0xff, 
  0xf6, 0xff, 0xff, 0xff, 0xfe, 0xff, 0xff, 0xff, 0xfd, 0xff, 0xff, 0xff, 
  0xee, 0xff, 0xff, 0xff, 0xf2, 0xff, 0xff, 0xff, 0xfc, 0xff, 0xff, 0xff, 
  0xf7, 0xff, 0xff, 0xff, 0x03, 0x00, 0x00, 0x00, 0xfc, 0xff, 0xff, 0xff, 
  0xfb, 0xff, 0xff, 0xff, 0xff, 0xff, 0xff, 0xff, 0xed, 0xff, 0xff, 0xff, 
  0xfb, 0xff, 0xff, 0xff, 0xf5, 0xff, 0xff, 0xff, 0x01, 0x00, 0x00, 0x00, 
  0xd2, 0xff, 0xff, 0xff, 0xed, 0xff, 0xff, 0xff, 0xff, 0xff, 0xff, 0xff, 
  0xfd, 0xff, 0xff, 0xff, 0xf0, 0xff, 0xff, 0xff, 0x0a, 0x00, 0x00, 0x00, 
  0x00, 0x00, 0x00, 0x00, 0xf6, 0xff, 0xff, 0xff, 0xf9, 0xff, 0xff, 0xff, 
  0xfe, 0xff, 0xff, 0xff, 0xf2, 0xff, 0xff, 0xff, 0xfd, 0xff, 0xff, 0xff, 
  0xf8, 0xff, 0xff, 0xff, 0xfb, 0xff, 0xff, 0xff, 0xec, 0xff, 0xff, 0xff, 
  0xfd, 0xff, 0xff, 0xff, 0x1a, 0xf1, 0xff, 0xff, 0x04, 0x00, 0x00, 0x00, 
  0x00, 0x08, 0x00, 0x00, 0xdf, 0x77, 0xdd, 0xbd, 0xdb, 0xf7, 0xf0, 0x24, 
  0x81, 0x3f, 0x01, 0x35, 0x09, 0x06, 0xa4, 0xf0, 0x03, 0x42, 0xdb, 0xc8, 
  0x60, 0x24, 0xbe, 0xc4, 0xa6, 0xde, 0xd5, 0xcd, 0xfa, 0x26, 0x19, 0x3b, 
  0xed, 0xe2, 0x1b, 0x0b, 0xab, 0xbb, 0x81, 0x1a, 0xf7, 0x13, 0x32, 0xf5, 
  0xc7, 0x3b, 0xd9, 0x6f, 0x10, 0x0f, 0x65, 0x48, 0x22, 0xf4, 0xf6, 0x1a, 
  0xf9, 0x64, 0xe2, 0x24, 0xfb, 0xf5, 0xfa, 0x09, 0x23, 0x08, 0x04, 0x37, 
  0xc0, 0xed, 0x0a, 0x0e, 0x19, 0x81, 0xd7, 0xe1, 0x3b, 0xfa, 0xfa, 0x0a, 
  0x03, 0xfd, 0xf3, 0x13, 0x0e, 0xec, 0x2e, 0x0f, 0xf5, 0xe8, 0xe9, 0xac, 
  0xef, 0xfd, 0xde, 0xff, 0x49, 0x30, 0x0e, 0x17, 0x81, 0x4f, 0xdd, 0xd5, 
  0xf4, 0x1b, 0xb0, 0x27, 0x0c, 0x42, 0xef, 0xfe, 0xbf, 0x2d, 0xb2, 0x1e, 
  0x1b, 0x2d, 0x33, 0xda, 0xf0, 0xbb, 0x38, 0xe7, 0xf6, 0x21, 0xeb, 0xff, 
  0x19, 0x20, 0x24, 0xe3, 0x44, 0x5b, 0x6d, 0x7f, 0x0e, 0xd6, 0xa6, 0x63, 
  0xd5, 0x1d, 0x9d, 0xe8, 0x46, 0x31, 0x93, 0x99, 0xd6, 0x3c, 0x04, 0x8f, 
  0xb6, 0xb3, 0xd6, 0xf1, 0x7d, 0x0e, 0xe0, 0x71, 0xe1, 0x0d, 0x04, 0xfb, 
  0xe3, 0xe4, 0xa0, 0xfd, 0xef, 0x10, 0x1f, 0x0b, 0x04, 0xed, 0xec, 0x53, 
  0x02, 0xfb, 0x7f, 0x07, 0xff, 0x15, 0xe7, 0xf5, 0xf0, 0x06, 0xe2, 0x07, 
  0x02, 0xe3, 0xf6, 0xf9, 0x16, 0x04, 0xf1, 0x14, 0x0d, 0x4a, 0xf0, 0x31, 
  0xfb, 0xe0, 0xb8, 0xff, 0x22, 0xf6, 0xd8, 0xf1, 0x0c, 0xf8, 0xc1, 0x10, 
  0xf1, 0x32, 0x17, 0xd2, 0xdb, 0xf8, 0xff, 0x81, 0x40, 0x07, 0xcb, 0xfb, 
  0x7f, 0x1b, 0xe3, 0xeb, 0xe5, 0x3a, 0xfa, 0xcd, 0xd1, 0x99, 0xd2, 0x2a, 
  0xea, 0x06, 0xdb, 0xf1, 0x1c, 0x4d, 0xc8, 0xe1, 0x3e, 0x12, 0xf8, 0x04, 
  0xec, 0x8b, 0x3f, 0xf1, 0x1c, 0xf1, 0xdc, 0xb9, 0x44, 0x11, 0xf3, 0x03, 
  0xe0, 0x29, 0xf2, 0x31, 0xb9, 0xd2, 0xc2, 0x1d, 0xe2, 0x1e, 0xde, 0xda, 
  0x12, 0x2c, 0xad, 0xd2, 0x1b, 0x09, 0x07, 0xe5, 0xe7, 0xc8, 0x44, 0x81, 
  0x16, 0x09, 0xce, 0xf3, 0xe3, 0x7c, 0x12, 0x9c, 0xff, 0x30, 0x4a, 0xaf, 
  0xde, 0x17, 0x11, 0x72, 0xc3, 0x1d, 0xea, 0x55, 0x07, 0xde, 0x3b, 0xb3, 
  0x11, 0x7f, 0xcd, 0xf3, 0xbf, 0x9c, 0xbd, 0x4c, 0x22, 0xf8, 0x0f, 0xf5, 
  0x7f, 0xf3, 0xe9, 0xfa, 0xba, 0x61, 0xf6, 0x15, 0xad, 0x42, 0x91, 0x09, 
  0xf7, 0xf7, 0xdf, 0xe8, 0xc3, 0x26, 0x92, 0xf5, 0x62, 0xfc, 0xf4, 0xf8, 
  0xaa, 0x9a, 0x62, 0x9b, 0x01, 0xf1, 0x1e, 0x37, 0x1a, 0xe3, 0xf5, 0x0a, 
  0x13, 0xfd, 0xf7, 0x14, 0x06, 0xad, 0xd6, 0xf6, 0xf6, 0x00, 0x0c, 0xe9, 
  0x81, 0x1f, 0xef, 0x1b, 0xf4, 0x1e, 0xc7, 0xe3, 0x0a, 0x32, 0x33, 0xf6, 
  0x52, 0x05, 0xd0, 0xd0, 0x7f, 0x03, 0x00, 0x02, 0xe1, 0x08, 0x0b, 0xde, 
  0xc6, 0x34, 0xc8, 0x2c, 0xe5, 0xd8, 0xf4, 0xe8, 0xfb, 0x19, 0xd9, 0x8e, 
  0x3a, 0x03, 0x70, 0xd6, 0xde, 0xfb, 0x6c, 0x07, 0xe5, 0x09, 0x24, 0xf1, 
  0x62, 0x07, 0x00, 0x03, 0x24, 0x26, 0xe1, 0xc1, 0xe6, 0xf4, 0xd0, 0xf3, 
  0x02, 0xeb, 0xe3, 0x01, 0x17, 0x0a, 0xe8, 0xb1, 0x13, 0x0e, 0x45, 0xe0, 
  0xf6, 0x13, 0x7f, 0x41, 0xfd, 0x11, 0xf0, 0xe0, 0xf2, 0x26, 0xa7, 0x11, 
  0x08, 0x37, 0x5e, 0x7f, 0x1f, 0xdb, 0xb5, 0x42, 0x32, 0x47, 0x2c, 0x26, 
  0x90, 0x14, 0x6a, 0x9b, 0xe0, 0xc6, 0xe1, 0xaf, 0xab, 0x0a, 0x4b, 0x46, 
  0xf9, 0x77, 0xe0, 0xc5, 0x09, 0xe2, 0x23, 0xfb, 0xd2, 0x08, 0x0d, 0xcf, 
  0xe8, 0xef, 0xaf, 0x17, 0x36, 0x3a, 0xf0, 0x37, 0x0f, 0xfd, 0x4b, 0x1c, 
  0x24, 0xdc, 0x38, 0x13, 0x24, 0x04, 0x08, 0xbd, 0xc1, 0x28, 0xe2, 0x7f, 
  0xde, 0x17, 0xfe, 0xe6, 0x04, 0x3d, 0x25, 0x52, 0xee, 0xfd, 0xf0, 0x08, 
  0xe4, 0xf3, 0xea, 0x7f, 0x17, 0xf1, 0xe7, 0xf5, 0x26, 0x19, 0xc6, 0xd0, 
  0x1b, 0x7a, 0xeb, 0x3f, 0x4f, 0x04, 0xee, 0xd2, 0x0c, 0x70, 0xd0, 0x74, 
  0xfc, 0xe4, 0xd9, 0xfd, 0x90, 0x54, 0xd3, 0xea, 0x34, 0x48, 0xfb, 0x0d, 
  0xbb, 0x72, 0x4a, 0xfb, 0x47, 0x36, 0x3a, 0xd1, 0xfd, 0x2c, 0xd5, 0x05, 
  0xe2, 0x7f, 0x99, 0xc2, 0x21, 0x14, 0xfd, 0xe6, 0xc4, 0xc7, 0x9e, 0xda, 
  0xef, 0xa8, 0x1d, 0xe8, 0x41, 0x19, 0x12, 0x7f, 0xb2, 0x05, 0x49, 0xce, 
  0x4d, 0xf6, 0xe0, 0x0b, 0x07, 0x0b, 0xf8, 0xb9, 0xf3, 0xf3, 0xc9, 0x24, 
  0x32, 0x7f, 0x06, 0xe9, 0x1e, 0x33, 0x24, 0xef, 0xff, 0xde, 0x1c, 0x55, 
  0xe8, 0x01, 0xfe, 0xf8, 0xd6, 0xf4, 0xe6, 0xd8, 0x0a, 0x1b, 0xd6, 0xb3, 
  0xd4, 0xb1, 0xd9, 0xff, 0x2a, 0x08, 0xdf, 0x33, 0x36, 0x31, 0x16, 0x20, 
  0xc6, 0x44, 0x23, 0x12, 0x0e, 0x2c, 0xdd, 0x10, 0x22, 0x02, 0xee, 0xd8, 
  0xf1, 0x4d, 0xb2, 0x81, 0xfe, 0x2d, 0x1b, 0xe1, 0xb6, 0xd6, 0x4e, 0x9a, 
  0x1d, 0x27, 0x17, 0x03, 0x00, 0xfd, 0xe4, 0xc8, 0xda, 0xd6, 0x3f, 0x1c, 
  0x38, 0x22, 0x14, 0xf2, 0xf3, 0x17, 0xf0, 0x66, 0xb4, 0xe2, 0x2b, 0xec, 
  0x4c, 0xeb, 0xba, 0x06, 0xf7, 0x7f, 0x2a, 0x17, 0xf6, 0x1c, 0xf7, 0xd7, 
  0xd2, 0x6a, 0x14, 0x04, 0xfe, 0x05, 0x38, 0x07, 0xca, 0x31, 0x23, 0x4f, 
  0x81, 0x18, 0xdc, 0x7d, 0x19, 0xd6, 0x43, 0x14, 0x18, 0x4a, 0xa8, 0xc9, 
  0xee, 0xd8, 0xd6, 0x4d, 0x63, 0xfa, 0xf3, 0x26, 0xfe, 0x24, 0x05, 0xe8, 
  0xce, 0xd3, 0x81, 0xe8, 0xd3, 0xa0, 0x00, 0x0f, 0x29, 0xe7, 0xef, 0x62, 
  0x3d, 0xf6, 0x4c, 0xd9, 0x07, 0x19, 0xe7, 0x00, 0xf7, 0xf2, 0x04, 0xe2, 
  0xf2, 0x0c, 0xcd, 0x1b, 0x12, 0xf4, 0x0e, 0x58, 0x01, 0x7f, 0x27, 0x41, 
  0x01, 0xd8, 0xdb, 0xf8, 0xf2, 0x26, 0x13, 0x39, 0xe9, 0xfe, 0x14, 0x05, 
  0x05, 0x04, 0x45, 0x0f, 0x05, 0xfd, 0x09, 0xfc, 0x46, 0x23, 0xef, 0x38, 
  0x11, 0x09, 0x0f, 0x35, 0xfb, 0x63, 0x29, 0x1c, 0x1d, 0xf2, 0x16, 0xf6, 
  0x0e, 0x23, 0x09, 0x74, 0xd4, 0xe6, 0x34, 0x19, 0xf8, 0xfd, 0x20, 0x0b, 
  0xf5, 0xf2, 0x0b, 0x28, 0x0b, 0x01, 0xd4, 0x7f, 0xf4, 0x22, 0x18, 0xdd, 
  0xdc, 0x09, 0x18, 0x17, 0x81, 0x2c, 0x23, 0x39, 0x02, 0xfc, 0xe0, 0x1c, 
  0x16, 0x38, 0xd3, 0x01, 0x79, 0x30, 0xd5, 0xb4, 0xb9, 0xe5, 0xe8, 0x07, 
  0x11, 0x01, 0xf8, 0xfd, 0x4f, 0x1e, 0x0f, 0x36, 0x1c, 0x2c, 0x38, 0x31, 
  0xd2, 0x93, 0x84, 0x08, 0xdf, 0x06, 0xd3, 0xee, 0x49, 0x4f, 0xd2, 0xbd, 
  0x28, 0xfd, 0x5f, 0xbe, 0xe2, 0xdb, 0x6c, 0x81, 0x29, 0x1f, 0xc9, 0xd7, 
  0x0e, 0xf4, 0xfd, 0x4f, 0xfa, 0x7f, 0x2c, 0x2e, 0x0b, 0xfc, 0xf1, 0x03, 
  0xff, 0x0f, 0xf7, 0x50, 0xe9, 0xf3, 0x17, 0x04, 0x13, 0xfe, 0x3c, 0x01, 
  0x0e, 0x15, 0x19, 0x04, 0x1b, 0x0b, 0xec, 0x31, 0xe0, 0xff, 0xfc, 0x14, 
  0xe7, 0xec, 0xc6, 0xf6, 0xeb, 0x08, 0x09, 0x0d, 0xd0, 0x41, 0xf7, 0x43, 
  0x01, 0xfe, 0x7f, 0x27, 0x14, 0x01, 0xed, 0xf4, 0x0c, 0x18, 0xe6, 0x19, 
  0x25, 0x02, 0xfa, 0xd4, 0x20, 0xf2, 0x4a, 0x4b, 0x12, 0x42, 0xd6, 0x52, 
  0x03, 0xc6, 0x16, 0xfe, 0x12, 0xd8, 0x95, 0x2e, 0xa5, 0x47, 0xee, 0x02, 
  0xdf, 0x7f, 0xf1, 0xbe, 0xe6, 0xcd, 0xe8, 0x21, 0x3e, 0xff, 0x9a, 0x59, 
  0xf9, 0x7f, 0xf5, 0x2c, 0x0a, 0xd8, 0xd2, 0x24, 0xb7, 0x35, 0x16, 0x30, 
  0xe8, 0x1c, 0xcc, 0xeb, 0x21, 0x29, 0xc7, 0xf4, 0x32, 0x51, 0xed, 0xcc, 
  0x9e, 0xf1, 0x02, 0xeb, 0xfa, 0x09, 0xf3, 0x3c, 0xf5, 0x3a, 0x0e, 0xd1, 
  0xf5, 0xc5, 0xa7, 0xe9, 0x88, 0x19, 0x0f, 0x1d, 0xf8, 0xf7, 0x98, 0x0c, 
  0xfc, 0x56, 0xf9, 0xe1, 0x7f, 0x2c, 0xd4, 0xb4, 0xb9, 0x23, 0xdb, 0xff, 
  0x05, 0x26, 0x13, 0xe3, 0x07, 0xe4, 0x06, 0x30, 0x09, 0x2f, 0x46, 0xc4, 
  0xc7, 0xf9, 0xc8, 0x22, 0x9e, 0x4d, 0x11, 0x0b, 0x84, 0xdf, 0x2d, 0x4b, 
  0xf9, 0x2d, 0x5c, 0xaa, 0xb4, 0xd3, 0x81, 0xf4, 0xea, 0x02, 0x0d, 0xa4, 
  0x15, 0xfd, 0xf9, 0xf0, 0xd1, 0xda, 0x0a, 0x57, 0xd0, 0xe3, 0x0d, 0x0f, 
  0xe8, 0x05, 0xde, 0x06, 0xf8, 0xf1, 0xf1, 0xeb, 0x55, 0xf9, 0xec, 0xf4, 
  0x07, 0x7f, 0x0f, 0x18, 0x06, 0x07, 0xf3, 0x01, 0xf5, 0x04, 0xf6, 0x7f, 
  0xf9, 0x6e, 0x2b, 0x49, 0x0c, 0x0f, 0xcf, 0xed, 0xfd, 0x1d, 0xf3, 0x65, 
  0xdf, 0xf8, 0x3a, 0x0d, 0x13, 0xf8, 0x2c, 0xe9, 0x0b, 0x13, 0x07, 0x00, 
  0x2f, 0x19, 0xf0, 0x40, 0x1d, 0x60, 0xdf, 0xd5, 0x17, 0x44, 0xf4, 0x10, 
  0xa8, 0xd4, 0x16, 0x7b, 0xdd, 0xb4, 0xdd, 0x21, 0x00, 0x00, 0xb5, 0xb9, 
  0x29, 0x1f, 0xd9, 0xa8, 0xf2, 0x81, 0xaa, 0x59, 0x42, 0xf3, 0x07, 0x63, 
  0x36, 0x45, 0x24, 0xf3, 0x55, 0x12, 0xdc, 0x04, 0x81, 0xef, 0x15, 0x47, 
  0x95, 0xd7, 0xb9, 0x1d, 0x2b, 0x5c, 0xc1, 0xdd, 0x70, 0x3e, 0xdf, 0xdd, 
  0xcd, 0x98, 0xdc, 0x69, 0x31, 0xfd, 0xf3, 0xe0, 0x21, 0xfe, 0x01, 0x61, 
  0xf6, 0x7f, 0x33, 0x3d, 0xec, 0xd6, 0xda, 0x03, 0x0b, 0x1e, 0xf6, 0x39, 
  0xe1, 0xf5, 0x14, 0xf9, 0x06, 0xf4, 0x4e, 0xfe, 0x08, 0x09, 0x14, 0xf6, 
  0x12, 0x11, 0xf3, 0x3c, 0xc5, 0x1a, 0x0c, 0xd4, 0x22, 0x7b, 0x09, 0x78, 
  0xd3, 0xc0, 0xe6, 0xe1, 0xbc, 0x56, 0xdd, 0xd8, 0x88, 0x39, 0xf0, 0x9e, 
  0x50, 0xde, 0x7f, 0x91, 0x83, 0x33, 0x28, 0xbe, 0xd9, 0x5b, 0xa3, 0x65, 
  0xbb, 0xec, 0x02, 0xe0, 0xc5, 0xd2, 0xc0, 0x20, 0x1b, 0xe9, 0x15, 0xfa, 
  0xdc, 0xe6, 0xe8, 0x7f, 0x04, 0x1d, 0x3e, 0x44, 0x0d, 0x2f, 0xc8, 0xd3, 
  0x0c, 0x43, 0xeb, 0x23, 0x42, 0xd6, 0xf4, 0x91, 0x2f, 0x51, 0xfd, 0xe7, 
  0x28, 0xf4, 0x1d, 0xd8, 0xe5, 0xfe, 0xfc, 0x3b, 0xb8, 0x09, 0xf2, 0xed, 
  0x81, 0x07, 0x25, 0xe0, 0x35, 0x54, 0xc9, 0xc3, 0xf5, 0xbc, 0xe0, 0xdc, 
  0x2f, 0x13, 0xe1, 0x02, 0xe3, 0x06, 0x00, 0x09, 0xe8, 0xf0, 0xac, 0x06, 
  0xf4, 0xfc, 0x14, 0x07, 0xee, 0xfa, 0x05, 0x5b, 0x0e, 0x05, 0x7f, 0x1f, 
  0x12, 0x10, 0xe2, 0xfa, 0x0b, 0x00, 0xf0, 0xfc, 0x04, 0x06, 0xf4, 0xe5, 
  0x00, 0x18, 0x12, 0x7f, 0x76, 0x1d, 0xb7, 0xfa, 0x1a, 0xb5, 0x0b, 0x0e, 
  0x9a, 0x1d, 0xe3, 0xef, 0x26, 0xf7, 0x29, 0x1d, 0x0e, 0x0f, 0x2f, 0xfd, 
  0x0a, 0xca, 0xef, 0x28, 0x54, 0xe4, 0xc7, 0x02, 0xe4, 0x37, 0xf7, 0x31, 
  0xce, 0xcd, 0xcc, 0x03, 0x9f, 0x56, 0x1e, 0x27, 0xd2, 0x25, 0xde, 0xe7, 
  0x15, 0x7f, 0xba, 0x10, 0x69, 0x4a, 0x05, 0xef, 0xb5, 0xe1, 0x24, 0x25, 
  0x06, 0x0a, 0xf5, 0x46, 0x10, 0x06, 0xf9, 0xe7, 0x81, 0xe9, 0x17, 0x02, 
  0x06, 0x93, 0xe9, 0xef, 0x1a, 0x2d, 0x06, 0x2b, 0xd4, 0xf8, 0xff, 0x23, 
  0x13, 0xf4, 0x00, 0x06, 0x04, 0xe5, 0x08, 0xaf, 0xfe, 0x2a, 0xac, 0x3e, 
  0x2e, 0x3d, 0x12, 0xe4, 0x24, 0xe8, 0xfb, 0xef, 0xf9, 0xb7, 0xfd, 0x3d, 
  0xf4, 0xe5, 0x11, 0x16, 0x99, 0x05, 0x7f, 0xb6, 0x1d, 0x17, 0xdf, 0xda, 
  0xf3, 0xcd, 0xe5, 0xed, 0x08, 0xf4, 0xb2, 0x22, 0xfc, 0xeb, 0xff, 0x62, 
  0xf7, 0x7f, 0x51, 0x36, 0xfb, 0xe2, 0xca, 0xe3, 0xe6, 0x21, 0x0d, 0x68, 
  0xd0, 0xfa, 0x2d, 0x01, 0x01, 0xe4, 0x42, 0x00, 0xf7, 0x00, 0x0d, 0x17, 
  0x6b, 0x0d, 0xe4, 0x50, 0xc4, 0x7f, 0xee, 0xfb, 0x27, 0x2c, 0xff, 0xf6, 
  0xc7, 0xc5, 0x06, 0x73, 0xa8, 0x00, 0xa2, 0x18, 0xee, 0x2c, 0xb5, 0xc1, 
  0xc3, 0x6b, 0xe6, 0xc1, 0xa2, 0xe0, 0xa5, 0x02, 0xfd, 0x09, 0x0c, 0x42, 
  0xcf, 0x6d, 0x1d, 0x9b, 0xd1, 0x19, 0xf9, 0x4e, 0x04, 0x33, 0x16, 0x1e, 
  0xe8, 0xe4, 0xe9, 0xc3, 0xa0, 0x2d, 0x6c, 0xf6, 0x3f, 0x50, 0x81, 0xdc, 
  0xc0, 0x7e, 0xd3, 0x2c, 0x22, 0x07, 0x22, 0x41, 0xf4, 0xed, 0xf2, 0x48, 
  0xf9, 0x7f, 0xf6, 0x41, 0x02, 0xe2, 0xd3, 0xff, 0xfd, 0x22, 0x0b, 0x41, 
  0xdd, 0xf0, 0x1b, 0x09, 0x0f, 0x02, 0x28, 0x07, 0x06, 0x1b, 0x11, 0x09, 
  0x36, 0x1e, 0xe1, 0x45, 0xee, 0x21, 0xa6, 0x5a, 0x43, 0x28, 0xdc, 0x50, 
  0x98, 0x22, 0xc2, 0xf9, 0x13, 0x6b, 0x26, 0x33, 0x02, 0x7b, 0xe2, 0xea, 
  0xe7, 0xb6, 0xf9, 0x39, 0xa5, 0x3a, 0x5a, 0xe2, 0x0a, 0x07, 0x81, 0x00, 
  0xfd, 0x45, 0xe1, 0xdf, 0xde, 0xd9, 0xcc, 0x48, 0x81, 0x2d, 0x1a, 0x23, 
  0x9e, 0xb3, 0xb4, 0x07, 0x00, 0x5a, 0xd6, 0xc7, 0x6d, 0x24, 0xc6, 0xf5, 
  0xaf, 0xca, 0xe4, 0x2e, 0x2b, 0xc6, 0x1d, 0x24, 0x2d, 0x2d, 0x27, 0xe1, 
  0xf1, 0xee, 0xee, 0x55, 0x1d, 0xeb, 0xe4, 0xd8, 0x9d, 0x03, 0xd2, 0x0f, 
  0x0b, 0x11, 0x00, 0x04, 0x16, 0xe8, 0xae, 0xc4, 0x20, 0x31, 0xc4, 0x30, 
  0x5d, 0x09, 0x00, 0x81, 0x48, 0xf3, 0x02, 0xd9, 0x9e, 0xa5, 0xa7, 0x01, 
  0xb7, 0x81, 0x13, 0xe5, 0x0b, 0x28, 0xdc, 0x64, 0xd9, 0xe8, 0x44, 0xd7, 
  0x70, 0xdc, 0xec, 0xfa, 0x22, 0x3f, 0x0f, 0xed, 0xe1, 0xf4, 0xec, 0x0f, 
  0xee, 0xec, 0xff, 0x0e, 0xea, 0xee, 0x04, 0xc9, 0xde, 0x2c, 0xf0, 0xfb, 
  0x9d, 0x16, 0xa6, 0x08, 0x0c, 0x46, 0xee, 0xf2, 0x51, 0x4a, 0x06, 0xf4, 
  0xd3, 0xfb, 0x4d, 0x7f, 0xe0, 0x12, 0x06, 0xfb, 0x7e, 0x01, 0xf5, 0xe3, 
  0xe4, 0xd3, 0xce, 0xca, 0x04, 0xd8, 0x13, 0xef, 0x1a, 0x0e, 0x08, 0x4e, 
  0xcc, 0x0f, 0x75, 0xed, 0x29, 0x04, 0xf8, 0x0a, 0x02, 0xe9, 0x7f, 0xa8, 
  0xd8, 0xf1, 0xc2, 0x3b, 0x13, 0x06, 0xe8, 0xe0, 0x3d, 0x1b, 0xf0, 0xb8, 
  0xc5, 0x26, 0xfc, 0x0a, 0x81, 0x45, 0xf6, 0xf5, 0xf3, 0x49, 0xf2, 0x08, 
  0x2e, 0x4a, 0xfc, 0xdd, 0xc7, 0xfc, 0xef, 0x5f, 0x3c, 0x05, 0xf1, 0xc1, 
  0x38, 0x07, 0x14, 0x10, 0xa9, 0x7f, 0xf1, 0xe6, 0x0d, 0x09, 0x9d, 0x2b, 
  0x04, 0x6f, 0xfb, 0xec, 0xb5, 0x12, 0xc3, 0x1f, 0xfd, 0x24, 0x14, 0xde, 
  0xd2, 0xc5, 0x59, 0xe9, 0x0f, 0x48, 0xf2, 0x00, 0x1b, 0x17, 0x06, 0xe0, 
  0xc6, 0xbb, 0xd8, 0xe6, 0xee, 0x8a, 0x13, 0xfe, 0x15, 0xe7, 0x0d, 0x7f, 
  0xa6, 0x09, 0x5d, 0xe7, 0x24, 0xf6, 0xdb, 0x09, 0x06, 0x18, 0xee, 0xe7, 
  0xf7, 0x0f, 0xe6, 0xfe, 0x05, 0x7f, 0xec, 0xf7, 0x0f, 0x0c, 0x22, 0x0b, 
  0xee, 0x04, 0x14, 0x47, 0xf1, 0xe9, 0x10, 0xf0, 0xc3, 0xf4, 0xf9, 0xce, 
  0x11, 0x3c, 0xd4, 0xba, 0xe4, 0xcb, 0xe0, 0xf7, 0x12, 0x06, 0xda, 0x2f, 
  0x1e, 0xe6, 0x15, 0xf6, 0x15, 0xe2, 0x5e, 0x0d, 0x2c, 0x81, 0x02, 0xec, 
  0xf5, 0xfd, 0xfa, 0x2f, 0xc2, 0x09, 0x5b, 0xd7, 0x24, 0x07, 0xdf, 0x06, 
  0xf7, 0x28, 0x02, 0xd9, 0xeb, 0x0e, 0xdf, 0x07, 0xc9, 0xf7, 0xf2, 0x15, 
  0xa2, 0xee, 0x28, 0xfc, 0x03, 0xca, 0x09, 0x06, 0x92, 0x29, 0xf4, 0x36, 
  0x81, 0x08, 0x44, 0x4b, 0xfd, 0xef, 0x2f, 0xe6, 0xee, 0xe2, 0xa9, 0xa2, 
  0x09, 0xfa, 0x08, 0xda, 0xfb, 0xee, 0x09, 0xec, 0xf7, 0xec, 0x81, 0xf3, 
  0x0c, 0x26, 0x14, 0x12, 0xe5, 0xee, 0xbe, 0x3c, 0x0f, 0x3a, 0x18, 0x22, 
  0x35, 0x3f, 0xd3, 0xef, 0xdb, 0x38, 0x00, 0xfc, 0x17, 0xe7, 0x05, 0xe6, 
  0x10, 0xdc, 0xff, 0xff, 0x2a, 0xf9, 0xff, 0xff, 0x04, 0x00, 0x00, 0x00, 
  0x80, 0x00, 0x00, 0x00, 0x00, 0x00, 0x00, 0x00, 0x00, 0x00, 0x00, 0x00, 
  0x00, 0x00, 0x00, 0x00, 0x00, 0x00, 0x00, 0x00, 0x00, 0x00, 0x00, 0x00, 
  0x00, 0x00, 0x00, 0x00, 0x00, 0x00, 0x00, 0x00, 0x00, 0x00, 0x00, 0x00, 
  0x00, 0x00, 0x00, 0x00, 0x00, 0x00, 0x00, 0x00, 0x00, 0x00, 0x00, 0x00, 
  0x00, 0x00, 0x00, 0x00, 0x00, 0x00, 0x00, 0x00, 0x00, 0x00, 0x00, 0x00, 
  0x00, 0x00, 0x00, 0x00, 0x00, 0x00, 0x00, 0x00, 0x00, 0x00, 0x00, 0x00, 
  0x00, 0x00, 0x00, 0x00, 0x00, 0x00, 0x00, 0x00, 0x00, 0x00, 0x00, 0x00, 
  0x00, 0x00, 0x00, 0x00, 0x00, 0x00, 0x00, 0x00, 0x00, 0x00, 0x00, 0x00, 
  0x00, 0x00, 0x00, 0x00, 0x00, 0x00, 0x00, 0x00, 0x00, 0x00, 0x00, 0x00, 
  0x00, 0x00, 0x00, 0x00, 0x00, 0x00, 0x00, 0x00, 0x00, 0x00, 0x00, 0x00, 
  0x00, 0x00, 0x00, 0x00, 0x00, 0x00, 0x00, 0x00, 0x00, 0x00, 0x00, 0x00, 
  0xb6, 0xf9, 0xff, 0xff, 0x04, 0x00, 0x00, 0x00, 0x20, 0x01, 0x00, 0x00, 
  0xc9, 0xe5, 0x07, 0xc1, 0x57, 0xdb, 0x03, 0xcf, 0x2b, 0xf8, 0xf3, 0xe7, 
  0x1a, 0xb8, 0x27, 0xa3, 0x05, 0xdc, 0xa3, 0xdb, 0xbf, 0xe2, 0xec, 0x3e, 
  0x29, 0x07, 0xea, 0xee, 0xe3, 0xf3, 0x10, 0xb4, 0xe0, 0xe8, 0xf6, 0xd7, 
  0x4f, 0xca, 0x26, 0xcc, 0x2b, 0x20, 0x22, 0xf6, 0x12, 0xf0, 0x1d, 0x81, 
  0x23, 0xe4, 0xaa, 0xe7, 0xcf, 0xeb, 0xcc, 0x24, 0x26, 0x07, 0xf0, 0xee, 
  0xed, 0xf6, 0xf9, 0xb2, 0xd7, 0x11, 0x05, 0xe6, 0x44, 0xcf, 0x16, 0xc5, 
  0x21, 0x2a, 0x18, 0x06, 0x11, 0xf2, 0x27, 0xa8, 0x5d, 0xe9, 0xa9, 0xff, 
  0xde, 0xf0, 0xbe, 0x10, 0x17, 0x21, 0x03, 0x0e, 0xee, 0xf1, 0xfe, 0xbb, 
  0xd7, 0xe2, 0x08, 0xc7, 0xea, 0xdb, 0x20, 0xd2, 0x0a, 0xee, 0x22, 0xf7, 
  0xfb, 0xf4, 0x10, 0xcd, 0x00, 0xdd, 0x8e, 0x04, 0xbf, 0xfe, 0xde, 0x0c, 
  0x1c, 0xc6, 0xeb, 0x28, 0xf3, 0x00, 0x04, 0xf8, 0xf5, 0xca, 0xfb, 0xd5, 
  0xf4, 0xd0, 0x05, 0xe7, 0xf9, 0x02, 0x33, 0xe5, 0xfc, 0x01, 0x02, 0xca, 
  0xfe, 0xf2, 0xbe, 0x0e, 0xf2, 0xf2, 0xba, 0x28, 0x28, 0xbf, 0xe1, 0x25, 
  0xee, 0x03, 0x00, 0xd4, 0xe7, 0xe0, 0x00, 0xf1, 0xe7, 0xd3, 0x19, 0xde, 
  0xf9, 0x1c, 0x27, 0xeb, 0xef, 0x08, 0xfc, 0xca, 0x22, 0xfa, 0xc0, 0x14, 
  0x10, 0xf4, 0xb4, 0x11, 0x27, 0xb4, 0x0d, 0x29, 0x02, 0x0d, 0x21, 0xe6, 
  0xb9, 0xea, 0xfe, 0xc7, 0x0d, 0xcb, 0xdc, 0xa1, 0xfe, 0xe8, 0xee, 0xec, 
  0x3f, 0x08, 0x23, 0xa4, 0xf0, 0xee, 0xa0, 0xfd, 0xc5, 0xfc, 0xf0, 0x0d, 
  0xf8, 0xf5, 0xb5, 0xf2, 0xc2, 0x12, 0xf7, 0xd4, 0xe0, 0xe6, 0x00, 0xe3, 
  0x27, 0xbe, 0xde, 0xbb, 0xe7, 0x20, 0x33, 0xde, 0x21, 0x05, 0x03, 0xaf, 
  0xfc, 0xf2, 0x90, 0x1f, 0xfa, 0xde, 0xcd, 0x20, 0x12, 0xba, 0xb4, 0xea, 
  0xd8, 0xfe, 0x0a, 0xca, 0xdd, 0xb7, 0x05, 0xf7, 0x14, 0xa9, 0xd3, 0xad, 
  0xf3, 0x4c, 0x24, 0xc7, 0xf4, 0x0b, 0xf5, 0xb0, 0xee, 0xe3, 0xdd, 0x20, 
  0x0b, 0xcc, 0xdf, 0x15, 0x38, 0x9d, 0xde, 0xfd, 0xdc, 0xf5, 0x5f, 0xb4, 
  0xcc, 0xdd, 0xff, 0xff, 0xe6, 0xfa, 0xff, 0xff, 0x04, 0x00, 0x00, 0x00, 
  0x80, 0x00, 0x00, 0x00, 0x02, 0x00, 0x00, 0x00, 0x22, 0x00, 0x00, 0x00, 
  0xf4, 0xff, 0xff, 0xff, 0x0f, 0x00, 0x00, 0x00, 0x0b, 0x00, 0x00, 0x00, 
  0x1b, 0x00, 0x00, 0x00, 0x80, 0x00, 0x00, 0x00, 0x48, 0x00, 0x00, 0x00, 
  0xb8, 0x00, 0x00, 0x00, 0x3a, 0x00, 0x00, 0x00, 0x04, 0x00, 0x00, 0x00, 
  0x28, 0x00, 0x00, 0x00, 0xee, 0x00, 0x00, 0x00, 0x5c, 0x00, 0x00, 0x00, 
  0x40, 0x00, 0x00, 0x00, 0x3b, 0x00, 0x00, 0x00, 0x5e, 0x00, 0x00, 0x00, 
  0x63, 0x00, 0x00, 0x00, 0x37, 0x00, 0x00, 0x00, 0xdb, 0x00, 0x00, 0x00, 
  0xc3, 0x00, 0x00, 0x00, 0x30, 0x00, 0x00, 0x00, 0x66, 0x00, 0x00, 0x00, 
  0x0d, 0x00, 0x00, 0x00, 0xd3, 0x00, 0x00, 0x00, 0xe6, 0xff, 0xff, 0xff, 
  0xad, 0xff, 0xff, 0xff, 0xea, 0xff, 0xff, 0xff, 0xa5, 0x00, 0x00, 0x00, 
  0x74, 0x00, 0x00, 0x00, 0x43, 0x00, 0x00, 0x00, 0x22, 0x00, 0x00, 0x00, 
  0x72, 0xfb, 0xff, 0xff, 0x04, 0x00, 0x00, 0x00, 0x00, 0x02, 0x00, 0x00, 
  0x11, 0xe1, 0x1f, 0x9f, 0xdc, 0x1d, 0xe9, 0xf4, 0x81, 0xbc, 0x10, 0x01, 
  0xca, 0x01, 0x12, 0xd5, 0x24, 0x13, 0x18, 0x1c, 0x7f, 0xf3, 0xf8, 0x0b, 
  0x19, 0xfb, 0xe1, 0x26, 0x18, 0xd7, 0x32, 0xf0, 0x7f, 0xfd, 0x0e, 0x05, 
  0x6f, 0x06, 0xe1, 0x53, 0x14, 0xd5, 0x72, 0x5e, 0xac, 0xf3, 0xd9, 0x5b, 
  0x3c, 0x3c, 0x42, 0xbd, 0x7f, 0xac, 0xb5, 0xd7, 0x4d, 0x2e, 0xdc, 0xd0, 
  0x6f, 0x43, 0xd2, 0x52, 0xff, 0x2d, 0xf2, 0x12, 0xcf, 0xff, 0xf9, 0xd1, 
  0x72, 0xf6, 0x25, 0x81, 0x48, 0x4c, 0xe3, 0x04, 0x06, 0xf7, 0x07, 0x36, 
  0x7f, 0xc5, 0xc2, 0xfc, 0x4c, 0xed, 0xcc, 0x03, 0x4f, 0x09, 0xfd, 0x11, 
  0xf2, 0xe5, 0x09, 0xc9, 0xb9, 0x10, 0x17, 0xc4, 0x43, 0xf9, 0x09, 0x81, 
  0xfb, 0x63, 0xde, 0x12, 0x38, 0xfb, 0x16, 0x1b, 0x49, 0x25, 0xb1, 0xff, 
  0x09, 0xef, 0xe6, 0x81, 0xf0, 0x7b, 0xf0, 0x15, 0x1a, 0xac, 0x35, 0x07, 
  0x17, 0xbf, 0x58, 0x25, 0x81, 0xbc, 0x6f, 0x17, 0x1b, 0xd7, 0x78, 0xba, 
  0xe3, 0xd6, 0xf3, 0xc5, 0xd1, 0x06, 0x1f, 0x08, 0x81, 0x0d, 0x01, 0x1a, 
  0xaf, 0xd6, 0x1f, 0xeb, 0xe2, 0x2e, 0xfd, 0xcf, 0x03, 0x10, 0xba, 0xba, 
  0x7f, 0xf6, 0x0f, 0x10, 0x1f, 0x04, 0x37, 0x68, 0x05, 0xec, 0x0b, 0xfd, 
  0x7f, 0xe1, 0xf9, 0x0f, 0x33, 0x0f, 0xda, 0x29, 0x16, 0xe5, 0x18, 0xf1, 
  0x93, 0x42, 0xda, 0xd3, 0xf6, 0x1e, 0x9a, 0x88, 0x62, 0x7f, 0x97, 0x8e, 
  0x01, 0x3d, 0x0c, 0x41, 0xaf, 0xff, 0x1a, 0x95, 0x51, 0xfb, 0xe9, 0xcd, 
  0x1a, 0x67, 0x81, 0xf0, 0x55, 0xc7, 0x44, 0x18, 0x1b, 0xeb, 0xf8, 0x7f, 
  0xeb, 0xe9, 0x2b, 0xe7, 0x54, 0x19, 0x3f, 0xed, 0x25, 0x61, 0x07, 0xdf, 
  0x02, 0xf6, 0xe0, 0xfb, 0xd1, 0xf7, 0x11, 0xe7, 0x50, 0xf5, 0x3c, 0x98, 
  0xef, 0x7f, 0xd3, 0x2d, 0xb4, 0xe1, 0x07, 0x92, 0xd6, 0x09, 0x10, 0xea, 
  0xe0, 0x1f, 0xbc, 0xe5, 0xea, 0x81, 0x30, 0xfd, 0x12, 0xeb, 0x21, 0x02, 
  0xf3, 0xfb, 0x33, 0x16, 0xc9, 0xe0, 0x7f, 0x51, 0xf7, 0xf9, 0x09, 0xcd, 
  0x02, 0x08, 0x0f, 0xed, 0x5a, 0xef, 0xf0, 0xfc, 0xd0, 0x29, 0xe8, 0x2c, 
  0x23, 0x81, 0x16, 0xee, 0xb5, 0xfb, 0x14, 0xd3, 0xfa, 0xcf, 0xfb, 0xbf, 
  0x40, 0x20, 0x81, 0x9c, 0x3b, 0xf1, 0xf3, 0x1a, 0x2c, 0xb5, 0x30, 0xde, 
  0x5d, 0xbb, 0x3f, 0x4c, 0xd8, 0xca, 0x68, 0x7f, 0xf7, 0xa5, 0x7a, 0xb8, 
  0x33, 0xec, 0x1f, 0x5a, 0x7f, 0x05, 0x1a, 0x44, 0x35, 0x0c, 0xe8, 0x57, 
  0x26, 0x14, 0x2f, 0x13, 0x1d, 0x32, 0x4b, 0x90, 0x65, 0xe9, 0xc5, 0xfc, 
  0x7f, 0x11, 0xef, 0xeb, 0x56, 0x45, 0x09, 0x46, 0x10, 0xef, 0xf4, 0x48, 
  0x7f, 0x06, 0x13, 0x29, 0x45, 0xff, 0x07, 0x2f, 0xf5, 0xd8, 0x43, 0xe5, 
  0x0e, 0xcc, 0x33, 0x04, 0x7f, 0xda, 0x35, 0x44, 0xed, 0x02, 0xef, 0x19, 
  0x18, 0x51, 0x2e, 0xc6, 0x51, 0x15, 0x24, 0x7f, 0x04, 0x03, 0xd8, 0xd5, 
  0x5a, 0xf6, 0x25, 0xb3, 0x4a, 0x3e, 0xd5, 0x19, 0xed, 0xf2, 0x28, 0xc7, 
  0xe1, 0xf7, 0xfc, 0x29, 0x81, 0xcb, 0x48, 0x32, 0x9e, 0x98, 0x11, 0xed, 
  0xef, 0x7f, 0x96, 0xde, 0xf5, 0x59, 0xa6, 0xd1, 0x3b, 0x3a, 0xe7, 0xcf, 
  0x09, 0xda, 0x1e, 0x6f, 0xbf, 0xf3, 0xe0, 0x6e, 0xf4, 0xd9, 0xf6, 0x9f, 
  0x42, 0x13, 0x81, 0xc5, 0x00, 0xe6, 0x1c, 0x2e, 0xd4, 0xc7, 0x39, 0xdb, 
  0x5d, 0xc2, 0xc1, 0xba, 0x62, 0x47, 0x81, 0xa5, 0xfc, 0xce, 0x5a, 0x38, 
  0xac, 0xef, 0xf4, 0x93, 0x81, 0x04, 0x09, 0xce, 0xd8, 0x2c, 0xe0, 0xc2, 
  0xd4, 0x03, 0x36, 0x04, 0x03, 0x12, 0x28, 0x8e, 0x19, 0x00, 0xfa, 0x3b, 
  0xad, 0xd4, 0xb4, 0x81, 0x0b, 0xea, 0xbb, 0x1b, 0x68, 0xe0, 0xff, 0xff, 
  0x82, 0xfd, 0xff, 0xff, 0x04, 0x00, 0x00, 0x00, 0x40, 0x00, 0x00, 0x00, 
  0x00, 0x00, 0x00, 0x00, 0x00, 0x00, 0x00, 0x00, 0x00, 0x00, 0x00, 0x00, 
  0x00, 0x00, 0x00, 0x00, 0x00, 0x00, 0x00, 0x00, 0x00, 0x00, 0x00, 0x00, 
  0x00, 0x00, 0x00, 0x00, 0x00, 0x00, 0x00, 0x00, 0x00, 0x00, 0x00, 0x00, 
  0x00, 0x00, 0x00, 0x00, 0x00, 0x00, 0x00, 0x00, 0x00, 0x00, 0x00, 0x00, 
  0x00, 0x00, 0x00, 0x00, 0x00, 0x00, 0x00, 0x00, 0x00, 0x00, 0x00, 0x00, 
  0x00, 0x00, 0x00, 0x00, 0xce, 0xfd, 0xff, 0xff, 0x04, 0x00, 0x00, 0x00, 
  0x90, 0x00, 0x00, 0x00, 0xe1, 0xd5, 0xfc, 0xab, 0x53, 0x1f, 0x30, 0x00, 
  0x1e, 0x3f, 0x83, 0xf2, 0xc7, 0x12, 0x42, 0xea, 0xb4, 0xe4, 0xea, 0x85, 
  0x2f, 0x07, 0x1f, 0x1e, 0xe6, 0x13, 0xb0, 0xf3, 0x03, 0x29, 0x59, 0xf8, 
  0xa1, 0x0a, 0x17, 0xbd, 0xf3, 0xfd, 0xfa, 0x19, 0xa5, 0xfc, 0xc4, 0x06, 
  0x0a, 0x38, 0x43, 0x1a, 0x07, 0xed, 0xf1, 0xb1, 0x20, 0x05, 0x28, 0xc7, 
  0x27, 0x4c, 0xae, 0xaa, 0xee, 0xe9, 0x29, 0xe4, 0xd1, 0xee, 0xfc, 0xb2, 
  0xf9, 0xff, 0x0c, 0xd2, 0xf8, 0x23, 0xc6, 0xc9, 0x09, 0x06, 0x2b, 0x02, 
  0xaa, 0x0d, 0x1f, 0xaf, 0xd2, 0xe8, 0xf1, 0xe8, 0xc2, 0x1c, 0xd8, 0xc2, 
  0x28, 0x14, 0x36, 0x09, 0xe4, 0xec, 0x24, 0xd0, 0xe6, 0x06, 0x22, 0xaa, 
  0x73, 0x13, 0xea, 0x8a, 0xea, 0xe0, 0xd7, 0xcd, 0xb8, 0xf9, 0x22, 0xbc, 
  0xbd, 0xdd, 0x03, 0xb2, 0x30, 0xfc, 0xf4, 0x8d, 0x0f, 0xd8, 0xf4, 0xe9, 
  0x98, 0xf8, 0x25, 0xad, 0xad, 0xd5, 0x02, 0xcc, 0xe2, 0x00, 0xf5, 0x81, 
  0x2f, 0xe9, 0xf4, 0xf7, 0x54, 0xe1, 0xff, 0xff, 0x6e, 0xfe, 0xff, 0xff, 
  0x04, 0x00, 0x00, 0x00, 0x40, 0x00, 0x00, 0x00, 0xb9, 0x2f, 0x00, 0x00, 
  0xec, 0x15, 0x00, 0x00, 0xb9, 0x21, 0x00, 0x00, 0x64, 0xfd, 0xff, 0xff, 
  0x80, 0x95, 0x00, 0x00, 0xea, 0x13, 0x00, 0x00, 0x78, 0x0a, 0x00, 0x00, 
  0xe3, 0x30, 0x00, 0x00, 0x05, 0x7b, 0x00, 0x00, 0x8f, 0x27, 0x00, 0x00, 
  0x30, 0x1e, 0x00, 0x00, 0x19, 0x2e, 0x00, 0x00, 0x6a, 0xf4, 0xff, 0xff, 
  0x7c, 0xff, 0xff, 0xff, 0x38, 0x23, 0x00, 0x00, 0x9e, 0x1a, 0x00, 0x00, 
  0xba, 0xfe, 0xff, 0xff, 0x04, 0x00, 0x00, 0x00, 0x90, 0x00, 0x00, 0x00, 
  0x7f, 0x27, 0xd8, 0x36, 0xdc, 0x9c, 0xeb, 0xf3, 0x95, 0x62, 0xf6, 0x08, 
  0x55, 0x57, 0x1b, 0x7f, 0x36, 0x00, 0x69, 0x5d, 0x1f, 0x25, 0x1e, 0x29, 
  0x7f, 0x79, 0x58, 0x7f, 0xed, 0x9a, 0x78, 0xe8, 0x99, 0x37, 0xf0, 0xde, 
  0x14, 0xe6, 0xc3, 0xf4, 0xe5, 0xa9, 0xae, 0x81, 0x87, 0xef, 0x4e, 0x1e, 
  0x57, 0x75, 0x7f, 0x5f, 0x76, 0x5c, 0x58, 0x1d, 0x3e, 0x7f, 0x24, 0x67, 
  0x60, 0x0a, 0x2c, 0xcf, 0xe6, 0x38, 0xac, 0xad, 0xdb, 0xa2, 0xa2, 0x81, 
  0xb7, 0xb1, 0x81, 0x07, 0xc2, 0xa3, 0xea, 0xb7, 0xb1, 0xe8, 0xde, 0xf8, 
  0x81, 0xba, 0xc7, 0x14, 0x1c, 0x3d, 0x93, 0xb1, 0xd7, 0xdf, 0x05, 0x43, 
  0xe7, 0x18, 0x7f, 0x13, 0x3a, 0x65, 0xc0, 0xef, 0x49, 0x81, 0xa7, 0xce, 
  0x73, 0x40, 0x7a, 0x1c, 0x01, 0x57, 0x35, 0x39, 0x7f, 0x50, 0x52, 0x5c, 
  0x13, 0x12, 0xfd, 0x4b, 0x52, 0x7f, 0x89, 0x91, 0x81, 0xee, 0xdb, 0xe6, 
  0x20, 0xed, 0x02, 0x1a, 0x0d, 0x39, 0x4d, 0x23, 0x52, 0x7a, 0x47, 0x7f, 
  0x56, 0xff, 0xff, 0xff, 0x04, 0x00, 0x00, 0x00, 0x08, 0x00, 0x00, 0x00, 
  0x01, 0x00, 0x00, 0x00, 0x02, 0x00, 0x00, 0x00, 0x54, 0xe2, 0xff, 0xff, 
  0x58, 0xe2, 0xff, 0xff, 0x0f, 0x00, 0x00, 0x00, 0x4d, 0x4c, 0x49, 0x52, 
  0x20, 0x43, 0x6f, 0x6e, 0x76, 0x65, 0x72, 0x74, 0x65, 0x64, 0x2e, 0x00, 
  0x01, 0x00, 0x00, 0x00, 0x14, 0x00, 0x00, 0x00, 0x00, 0x00, 0x0e, 0x00, 
  0x18, 0x00, 0x14, 0x00, 0x10, 0x00, 0x0c, 0x00, 0x08, 0x00, 0x04, 0x00, 
  0x0e, 0x00, 0x00, 0x00, 0x14, 0x00, 0x00, 0x00, 0x1c, 0x00, 0x00, 0x00, 
  0x58, 0x02, 0x00, 0x00, 0x5c, 0x02, 0x00, 0x00, 0x60, 0x02, 0x00, 0x00, 
  0x04, 0x00, 0x00, 0x00, 0x6d, 0x61, 0x69, 0x6e, 0x00, 0x00, 0x00, 0x00, 
  0x08, 0x00, 0x00, 0x00, 0xf4, 0x01, 0x00, 0x00, 0x94, 0x01, 0x00, 0x00, 
  0x34, 0x01, 0x00, 0x00, 0xf0, 0x00, 0x00, 0x00, 0xac, 0x00, 0x00, 0x00, 
  0x78, 0x00, 0x00, 0x00, 0x40, 0x00, 0x00, 0x00, 0x04, 0x00, 0x00, 0x00, 
  0x96, 0xfe, 0xff, 0xff, 0x1c, 0x00, 0x00, 0x00, 0x00, 0x00, 0x00, 0x09, 
  0x1c, 0x00, 0x00, 0x00, 0x20, 0x00, 0x00, 0x00, 0x04, 0x00, 0x00, 0x00, 
  0x00, 0x00, 0x06, 0x00, 0x08, 0x00, 0x04, 0x00, 0x06, 0x00, 0x00, 0x00, 
  0x00, 0x00, 0x80, 0x3f, 0x01, 0x00, 0x00, 0x00, 0x15, 0x00, 0x00, 0x00, 
  0x01, 0x00, 0x00, 0x00, 0x14, 0x00, 0x00, 0x00, 0xce, 0xfe, 0xff, 0xff, 
  0x14, 0x00, 0x00, 0x00, 0x00, 0x00, 0x00, 0x08, 0x10, 0x00, 0x00, 0x00, 
  0x14, 0x00, 0x00, 0x00, 0x03, 0x00, 0x00, 0x00, 0x20, 0xe3, 0xff, 0xff, 
  0x01, 0x00, 0x00, 0x00, 0x14, 0x00, 0x00, 0x00, 0x03, 0x00, 0x00, 0x00, 
  0x11, 0x00, 0x00, 0x00, 0x12, 0x00, 0x00, 0x00, 0x13, 0x00, 0x00, 0x00, 
  0x02, 0xff, 0xff, 0xff, 0x14, 0x00, 0x00, 0x00, 0x00, 0x00, 0x00, 0x1b, 
  0x10, 0x00, 0x00, 0x00, 0x14, 0x00, 0x00, 0x00, 0x02, 0x00, 0x00, 0x00, 
  0x54, 0xe3, 0xff, 0xff, 0x01, 0x00, 0x00, 0x00, 0x11, 0x00, 0x00, 0x00, 
  0x02, 0x00, 0x00, 0x00, 0x10, 0x00, 0x00, 0x00, 0x01, 0x00, 0x00, 0x00, 
  0xd6, 0xfe, 0xff, 0xff, 0x10, 0x00, 0x00, 0x00, 0x00, 0x00, 0x00, 0x01, 
  0x1c, 0x00, 0x00, 0x00, 0x20, 0x00, 0x00, 0x00, 0x80, 0xff, 0xff, 0xff, 
  0x00, 0x00, 0x00, 0x01, 0x01, 0x00, 0x00, 0x00, 0x01, 0x00, 0x00, 0x00, 
  0x00, 0x00, 0x00, 0x01, 0x01, 0x00, 0x00, 0x00, 0x10, 0x00, 0x00, 0x00, 
  0x03, 0x00, 0x00, 0x00, 0x0d, 0x00, 0x00, 0x00, 0x0e, 0x00, 0x00, 0x00, 
  0x0f, 0x00, 0x00, 0x00, 0x72, 0xff, 0xff, 0xff, 0x14, 0x00, 0x00, 0x00, 
  0x00, 0x00, 0x00, 0x02, 0x1c, 0x00, 0x00, 0x00, 0x20, 0x00, 0x00, 0x00, 
  0x01, 0x00, 0x00, 0x00, 0x64, 0xff, 0xff, 0xff, 0x01, 0x00, 0x00, 0x00, 
  0x02, 0x00, 0x00, 0x00, 0x02, 0x00, 0x00, 0x00, 0x01, 0x00, 0x00, 0x00, 
  0x0d, 0x00, 0x00, 0x00, 0x03, 0x00, 0x00, 0x00, 0x0a, 0x00, 0x00, 0x00, 
  0x0b, 0x00, 0x00, 0x00, 0x0c, 0x00, 0x00, 0x00, 0x56, 0xff, 0xff, 0xff, 
  0x1c, 0x00, 0x00, 0x00, 0x00, 0x00, 0x00, 0x01, 0x28, 0x00, 0x00, 0x00, 
  0x2c, 0x00, 0x00, 0x00, 0x0c, 0x00, 0x14, 0x00, 0x13, 0x00, 0x0c, 0x00, 
  0x08, 0x00, 0x07, 0x00, 0x0c, 0x00, 0x00, 0x00, 0x00, 0x00, 0x00, 0x01, 
  0x01, 0x00, 0x00, 0x00, 0x01, 0x00, 0x00, 0x00, 0x00, 0x00, 0x00, 0x01, 
  0x01, 0x00, 0x00, 0x00, 0x0a, 0x00, 0x00, 0x00, 0x03, 0x00, 0x00, 0x00, 
  0x07, 0x00, 0x00, 0x00, 0x08, 0x00, 0x00, 0x00, 0x09, 0x00, 0x00, 0x00, 
  0x00, 0x00, 0x0e, 0x00, 0x18, 0x00, 0x14, 0x00, 0x10, 0x00, 0x0c, 0x00, 
  0x0b, 0x00, 0x04, 0x00, 0x0e, 0x00, 0x00, 0x00, 0x20, 0x00, 0x00, 0x00, 
  0x00, 0x00, 0x00, 0x02, 0x28, 0x00, 0x00, 0x00, 0x2c, 0x00, 0x00, 0x00, 
  0x01, 0x00, 0x00, 0x00, 0x0c, 0x00, 0x10, 0x00, 0x00, 0x00, 0x0c, 0x00, 
  0x08, 0x00, 0x04, 0x00, 0x0c, 0x00, 0x00, 0x00, 0x01, 0x00, 0x00, 0x00, 
  0x02, 0x00, 0x00, 0x00, 0x02, 0x00, 0x00, 0x00, 0x01, 0x00, 0x00, 0x00, 
  0x07, 0x00, 0x00, 0x00, 0x03, 0x00, 0x00, 0x00, 0x04, 0x00, 0x00, 0x00, 
  0x05, 0x00, 0x00, 0x00, 0x06, 0x00, 0x00, 0x00, 0x00, 0x00, 0x0e, 0x00, 
  0x14, 0x00, 0x00, 0x00, 0x10, 0x00, 0x0c, 0x00, 0x0b, 0x00, 0x04, 0x00, 
  0x0e, 0x00, 0x00, 0x00, 0x1c, 0x00, 0x00, 0x00, 0x00, 0x00, 0x00, 0x01, 
  0x24, 0x00, 0x00, 0x00, 0x28, 0x00, 0x00, 0x00, 0x0c, 0x00, 0x10, 0x00, 
  0x00, 0x00, 0x0c, 0x00, 0x08, 0x00, 0x07, 0x00, 0x0c, 0x00, 0x00, 0x00, 
  0x00, 0x00, 0x00, 0x01, 0x02, 0x00, 0x00, 0x00, 0x02, 0x00, 0x00, 0x00, 
  0x01, 0x00, 0x00, 0x00, 0x04, 0x00, 0x00, 0x00, 0x03, 0x00, 0x00, 0x00, 
  0x00, 0x00, 0x00, 0x00, 0x02, 0x00, 0x00, 0x00, 0x03, 0x00, 0x00, 0x00, 
  0x01, 0x00, 0x00, 0x00, 0x15, 0x00, 0x00, 0x00, 0x01, 0x00, 0x00, 0x00, 
  0x00, 0x00, 0x00, 0x00, 0x16, 0x00, 0x00, 0x00, 0x3c, 0x1b, 0x00, 0x00, 
  0xe0, 0x1a, 0x00, 0x00, 0x58, 0x19, 0x00, 0x00, 0x44, 0x18, 0x00, 0x00, 
  0x80, 0x17, 0x00, 0x00, 0xe4, 0x15, 0x00, 0x00, 0xd0, 0x14, 0x00, 0x00, 
  0x34, 0x14, 0x00, 0x00, 0x00, 0x12, 0x00, 0x00, 0x2c, 0x10, 0x00, 0x00, 
  0x38, 0x0f, 0x00, 0x00, 0xe8, 0x0c, 0x00, 0x00, 0x10, 0x0b, 0x00, 0x00, 
  0x74, 0x0a, 0x00, 0x00, 0xc0, 0x06, 0x00, 0x00, 0x6c, 0x03, 0x00, 0x00, 
  0xa8, 0x02, 0x00, 0x00, 0x1c, 0x02, 0x00, 0x00, 0x78, 0x01, 0x00, 0x00, 
  0x14, 0x01, 0x00, 0x00, 0x80, 0x00, 0x00, 0x00, 0x04, 0x00, 0x00, 0x00, 
  0x32, 0xe5, 0xff, 0xff, 0x00, 0x00, 0x00, 0x01, 0x18, 0x00, 0x00, 0x00, 
  0x20, 0x00, 0x00, 0x00, 0x3c, 0x00, 0x00, 0x00, 0x16, 0x00, 0x00, 0x00, 
  0x00, 0x00, 0x00, 0x09, 0x50, 0x00, 0x00, 0x00, 0x02, 0x00, 0x00, 0x00, 
  0xff, 0xff, 0xff, 0xff, 0x24, 0x00, 0x00, 0x00, 0x14, 0xe5, 0xff, 0xff, 
  0x08, 0x00, 0x00, 0x00, 0x10, 0x00, 0x00, 0x00, 0x01, 0x00, 0x00, 0x00, 
  0x80, 0xff, 0xff, 0xff, 0xff, 0xff, 0xff, 0xff, 0x01, 0x00, 0x00, 0x00, 
  0x00, 0x00, 0x80, 0x3b, 0x19, 0x00, 0x00, 0x00, 0x53, 0x74, 0x61, 0x74, 
  0x65, 0x66, 0x75, 0x6c, 0x50, 0x61, 0x72, 0x74, 0x69, 0x74, 0x69, 0x6f, 
  0x6e, 0x65, 0x64, 0x43, 0x61, 0x6c, 0x6c, 0x3a, 0x30, 0x00, 0x00, 0x00, 
  0x02, 0x00, 0x00, 0x00, 0x01, 0x00, 0x00, 0x00, 0x24, 0x00, 0x00, 0x00, 
  0xaa, 0xe5, 0xff, 0xff, 0x00, 0x00, 0x00, 0x01, 0x18, 0x00, 0x00, 0x00, 
  0x20, 0x00, 0x00, 0x00, 0x3c, 0x00, 0x00, 0x00, 0x15, 0x00, 0x00, 0x00, 
  0x00, 0x00, 0x00, 0x09, 0x68, 0x00, 0x00, 0x00, 0x02, 0x00, 0x00, 0x00, 
  0xff, 0xff, 0xff, 0xff, 0x24, 0x00, 0x00, 0x00, 0x8c, 0xe5, 0xff, 0xff, 
  0x08, 0x00, 0x00, 0x00, 0x10, 0x00, 0x00, 0x00, 0x01, 0x00, 0x00, 0x00, 
  0x5a, 0x00, 0x00, 0x00, 0x00, 0x00, 0x00, 0x00, 0x01, 0x00, 0x00, 0x00, 
  0x50, 0x88, 0x6e, 0x3e, 0x32, 0x00, 0x00, 0x00, 0x6d, 0x6f, 0x64, 0x65, 
  0x6c, 0x2f, 0x71, 0x75, 0x61, 0x6e, 0x74, 0x5f, 0x64, 0x65, 0x6e, 0x73, 
  0x65, 0x2f, 0x4d, 0x61, 0x74, 0x4d, 0x75, 0x6c, 0x3b, 0x6d, 0x6f, 0x64, 
  0x65, 0x6c, 0x2f, 0x71, 0x75, 0x61, 0x6e, 0x74, 0x5f, 0x64, 0x65, 0x6e, 
  0x73, 0x65, 0x2f, 0x42, 0x69, 0x61, 0x73, 0x41, 0x64, 0x64, 0x00, 0x00, 
  0x02, 0x00, 0x00, 0x00, 0x01, 0x00, 0x00, 0x00, 0x24, 0x00, 0x00, 0x00, 
  0x92, 0xe6, 0xff, 0xff, 0x00, 0x00, 0x00, 0x01, 0x14, 0x00, 0x00, 0x00, 
  0x34, 0x00, 0x00, 0x00, 0x14, 0x00, 0x00, 0x00, 0x00, 0x00, 0x00, 0x02, 
  0x40, 0x00, 0x00, 0x00, 0x0c, 0xe6, 0xff, 0xff, 0x08, 0x00, 0x00, 0x00, 
  0x14, 0x00, 0x00, 0x00, 0x01, 0x00, 0x00, 0x00, 0x00, 0x00, 0x00, 0x00, 
  0x00, 0x00, 0x00, 0x00, 0x00, 0x00, 0x00, 0x00, 0x01, 0x00, 0x00, 0x00, 
  0x5c, 0xb1, 0x02, 0x3a, 0x12, 0x00, 0x00, 0x00, 0x74, 0x66, 0x6c, 0x2e, 
  0x70, 0x73, 0x65, 0x75, 0x64, 0x6f, 0x5f, 0x71, 0x63, 0x6f, 0x6e, 0x73, 
  0x74, 0x33, 0x00, 0x00, 0x01, 0x00, 0x00, 0x00, 0x24, 0x00, 0x00, 0x00, 
  0xf2, 0xe6, 0xff, 0xff, 0x00, 0x00, 0x00, 0x01, 0x14, 0x00, 0x00, 0x00, 
  0x30, 0x00, 0x00, 0x00, 0x13, 0x00, 0x00, 0x00, 0x00, 0x00, 0x00, 0x09, 
  0x7c, 0x00, 0x00, 0x00, 0x6c, 0xe6, 0xff, 0xff, 0x08, 0x00, 0x00, 0x00, 
  0x10, 0x00, 0x00, 0x00, 0x01, 0x00, 0x00, 0x00, 0x00, 0x00, 0x00, 0x00, 
  0x00, 0x00, 0x00, 0x00, 0x01, 0x00, 0x00, 0x00, 0x85, 0xc7, 0x87, 0x3c, 
  0x51, 0x00, 0x00, 0x00, 0x6d, 0x6f, 0x64, 0x65, 0x6c, 0x2f, 0x71, 0x75, 
  0x61, 0x6e, 0x74, 0x5f, 0x64, 0x65, 0x6e, 0x73, 0x65, 0x2f, 0x4d, 0x61, 
  0x74, 0x4d, 0x75, 0x6c, 0x3b, 0x6d, 0x6f, 0x64, 0x65, 0x6c, 0x2f, 0x71, 
  0x75, 0x61, 0x6e, 0x74, 0x5f, 0x64, 0x65, 0x6e, 0x73, 0x65, 0x2f, 0x4c, 
  0x61, 0x73, 0x74, 0x56, 0x61, 0x6c, 0x75, 0x65, 0x51, 0x75, 0x61, 0x6e, 
  0x74, 0x2f, 0x46, 0x61, 0x6b, 0x65, 0x51, 0x75, 0x61, 0x6e, 0x74, 0x57, 
  0x69, 0x74, 0x68, 0x4d, 0x69, 0x6e, 0x4d, 0x61, 0x78, 0x56, 0x61, 0x72, 
  0x73, 0x00, 0x00, 0x00, 0x02, 0x00, 0x00, 0x00, 0x24, 0x00, 0x00, 0x00, 
  0x40, 0x00, 0x00, 0x00, 0x3a, 0xe7, 0xff, 0xff, 0x00, 0x00, 0x00, 0x01, 
  0x18, 0x00, 0x00, 0x00, 0x20, 0x00, 0x00, 0x00, 0x3c, 0x00, 0x00, 0x00, 
  0x12, 0x00, 0x00, 0x00, 0x00, 0x00, 0x00, 0x09, 0x60, 0x00, 0x00, 0x00, 
  0x02, 0x00, 0x00, 0x00, 0xff, 0xff, 0xff, 0xff, 0x40, 0x00, 0x00, 0x00, 
  0x1c, 0xe7, 0xff, 0xff, 0x08, 0x00, 0x00, 0x00, 0x10, 0x00, 0x00, 0x00, 
  0x01, 0x00, 0x00, 0x00, 0x80, 0xff, 0xff, 0xff, 0xff, 0xff, 0xff, 0xff, 
  0x01, 0x00, 0x00, 0x00, 0xe5, 0x68, 0xf6, 0x3c, 0x29, 0x00, 0x00, 0x00, 
  0x6d, 0x6f, 0x64, 0x65, 0x6c, 0x2f, 0x71, 0x75, 0x61, 0x6e, 0x74, 0x5f, 
  0x67, 0x6c, 0x6f, 0x62, 0x61, 0x6c, 0x5f, 0x61, 0x76, 0x65, 0x72, 0x61, 
  0x67, 0x65, 0x5f, 0x70, 0x6f, 0x6f, 0x6c, 0x69, 0x6e, 0x67, 0x32, 0x64, 
  0x2f, 0x4d, 0x65, 0x61, 0x6e, 0x00, 0x00, 0x00, 0x02, 0x00, 0x00, 0x00, 
  0x01, 0x00, 0x00, 0x00, 0x40, 0x00, 0x00, 0x00, 0xc2, 0xe7, 0xff, 0xff, 
  0x00, 0x00, 0x00, 0x01, 0x18, 0x00, 0x00, 0x00, 0x28, 0x00, 0x00, 0x00, 
  0x44, 0x00, 0x00, 0x00, 0x11, 0x00, 0x00, 0x00, 0x00, 0x00, 0x00, 0x09, 
  0x90, 0x00, 0x00, 0x00, 0x04, 0x00, 0x00, 0x00, 0xff, 0xff, 0xff, 0xff, 
  0x08, 0x00, 0x00, 0x00, 0x08, 0x00, 0x00, 0x00, 0x40, 0x00, 0x00, 0x00, 
  0xac, 0xe7, 0xff, 0xff, 0x08, 0x00, 0x00, 0x00, 0x10, 0x00, 0x00, 0x00, 
  0x01, 0x00, 0x00, 0x00, 0x80, 0xff, 0xff, 0xff, 0xff, 0xff, 0xff, 0xff, 
  0x01, 0x00, 0x00, 0x00, 0x62, 0xbd, 0x05, 0x3f, 0x53, 0x00, 0x00, 0x00, 
  0x6d, 0x6f, 0x64, 0x65, 0x6c, 0x2f, 0x71, 0x75, 0x61, 0x6e, 0x74, 0x5f, 
  0x63, 0x6f, 0x6e, 0x76, 0x32, 0x64, 0x5f, 0x32, 0x2f, 0x52, 0x65, 0x6c, 
  0x75, 0x3b, 0x6d, 0x6f, 0x64, 0x65, 0x6c, 0x2f, 0x71, 0x75, 0x61, 0x6e, 
  0x74, 0x5f, 0x63, 0x6f, 0x6e, 0x76, 0x32, 0x64, 0x5f, 0x32, 0x2f, 0x42, 
  0x69, 0x61, 0x73, 0x41, 0x64, 0x64, 0x3b, 0x6d, 0x6f, 0x64, 0x65, 0x6c, 
  0x2f, 0x71, 0x75, 0x61, 0x6e, 0x74, 0x5f, 0x63, 0x6f, 0x6e, 0x76, 0x32, 
  0x64, 0x5f, 0x32, 0x2f, 0x43, 0x6f, 0x6e, 0x76, 0x32, 0x44, 0x3b, 0x00, 
  0x04, 0x00, 0x00, 0x00, 0x01, 0x00, 0x00, 0x00, 0x08, 0x00, 0x00, 0x00, 
  0x08, 0x00, 0x00, 0x00, 0x40, 0x00, 0x00, 0x00, 0xda, 0xe8, 0xff, 0xff, 
  0x00, 0x00, 0x00, 0x01, 0x14, 0x00, 0x00, 0x00, 0x24, 0x03, 0x00, 0x00, 
  0x10, 0x00, 0x00, 0x00, 0x00, 0x00, 0x00, 0x02, 0x30, 0x03, 0x00, 0x00, 
  0x54, 0xe8, 0xff, 0xff, 0x08, 0x00, 0x00, 0x00, 0x08, 0x02, 0x00, 0x00, 
  0x40, 0x00, 0x00, 0x00, 0x00, 0x00, 0x00, 0x00, 0x00, 0x00, 0x00, 0x00, 
  0x00, 0x00, 0x00, 0x00, 0x00, 0x00, 0x00, 0x00, 0x00, 0x00, 0x00, 0x00, 
  0x00, 0x00, 0x00, 0x00, 0x00, 0x00, 0x00, 0x00, 0x00, 0x00, 0x00, 0x00, 
  0x00, 0x00, 0x00, 0x00, 0x00, 0x00, 0x00, 0x00, 0x00, 0x00, 0x00, 0x00, 
  0x00, 0x00, 0x00, 0x00, 0x00, 0x00, 0x00, 0x00, 0x00, 0x00, 0x00, 0x00, 
  0x00, 0x00, 0x00, 0x00, 0x00, 0x00, 0x00, 0x00, 0x00, 0x00, 0x00, 0x00, 
  0x00, 0x00, 0x00, 0x00, 0x00, 0x00, 0x00, 0x00, 0x00, 0x00, 0x00, 0x00, 
  0x00, 0x00, 0x00, 0x00, 0x00, 0x00, 0x00, 0x00, 0x00, 0x00, 0x00, 0x00, 
  0x00, 0x00, 0x00, 0x00, 0x00, 0x00, 0x00, 0x00, 0x00, 0x00, 0x00, 0x00, 
  0x00, 0x00, 0x00, 0x00, 0x00, 0x00, 0x00, 0x00, 0x00, 0x00, 0x00, 0x00, 
  0x00, 0x00, 0x00, 0x00, 0x00, 0x00, 0x00, 0x00, 0x00, 0x00, 0x00, 0x00, 
  0x00, 0x00, 0x00, 0x00, 0x00, 0x00, 0x00, 0x00, 0x00, 0x00, 0x00, 0x00, 
  0x00, 0x00, 0x00, 0x00, 0x00, 0x00, 0x00, 0x00, 0x00, 0x00, 0x00, 0x00, 
  0x00, 0x00, 0x00, 0x00, 0x00, 0x00, 0x00, 0x00, 0x00, 0x00, 0x00, 0x00, 
  0x00, 0x00, 0x00, 0x00, 0x00, 0x00, 0x00, 0x00, 0x00, 0x00, 0x00, 0x00, 
  0x00, 0x00, 0x00, 0x00, 0x00, 0x00, 0x00, 0x00, 0x00, 0x00, 0x00, 0x00, 
  0x00, 0x00, 0x00, 0x00, 0x00, 0x00, 0x00, 0x00, 0x00, 0x00, 0x00, 0x00, 
  0x00, 0x00, 0x00, 0x00, 0x00, 0x00, 0x00, 0x00, 0x00, 0x00, 0x00, 0x00, 
  0x00, 0x00, 0x00, 0x00, 0x00, 0x00, 0x00, 0x00, 0x00, 0x00, 0x00, 0x00, 
  0x00, 0x00, 0x00, 0x00, 0x00, 0x00, 0x00, 0x00, 0x00, 0x00, 0x00, 0x00, 
  0x00, 0x00, 0x00, 0x00, 0x00, 0x00, 0x00, 0x00, 0x00, 0x00, 0x00, 0x00, 
  0x00, 0x00, 0x00, 0x00, 0x00, 0x00, 0x00, 0x00, 0x00, 0x00, 0x00, 0x00, 
  0x00, 0x00, 0x00, 0x00, 0x00, 0x00, 0x00, 0x00, 0x00, 0x00, 0x00, 0x00, 
  0x00, 0x00, 0x00, 0x00, 0x00, 0x00, 0x00, 0x00, 0x00, 0x00, 0x00, 0x00, 
  0x00, 0x00, 0x00, 0x00, 0x00, 0x00, 0x00, 0x00, 0x00, 0x00, 0x00, 0x00, 
  0x00, 0x00, 0x00, 0x00, 0x00, 0x00, 0x00, 0x00, 0x00, 0x00, 0x00, 0x00, 
  0x00, 0x00, 0x00, 0x00, 0x00, 0x00, 0x00, 0x00, 0x00, 0x00, 0x00, 0x00, 
  0x00, 0x00, 0x00, 0x00, 0x00, 0x00, 0x00, 0x00, 0x00, 0x00, 0x00, 0x00, 
  0x00, 0x00, 0x00, 0x00, 0x00, 0x00, 0x00, 0x00, 0x00, 0x00, 0x00, 0x00, 
  0x00, 0x00, 0x00, 0x00, 0x00, 0x00, 0x00, 0x00, 0x00, 0x00, 0x00, 0x00, 
  0x00, 0x00, 0x00, 0x00, 0x00, 0x00, 0x00, 0x00, 0x00, 0x00, 0x00, 0x00, 
  0x00, 0x00, 0x00, 0x00, 0x00, 0x00, 0x00, 0x00, 0x00, 0x00, 0x00, 0x00, 
  0x00, 0x00, 0x00, 0x00, 0x00, 0x00, 0x00, 0x00, 0x00, 0x00, 0x00, 0x00, 
  0x00, 0x00, 0x00, 0x00, 0x00, 0x00, 0x00, 0x00, 0x00, 0x00, 0x00, 0x00, 
  0x00, 0x00, 0x00, 0x00, 0x00, 0x00, 0x00, 0x00, 0x00, 0x00, 0x00, 0x00, 
  0x00, 0x00, 0x00, 0x00, 0x00, 0x00, 0x00, 0x00, 0x00, 0x00, 0x00, 0x00, 
  0x00, 0x00, 0x00, 0x00, 0x00, 0x00, 0x00, 0x00, 0x00, 0x00, 0x00, 0x00, 
  0x00, 0x00, 0x00, 0x00, 0x00, 0x00, 0x00, 0x00, 0x00, 0x00, 0x00, 0x00, 
  0x00, 0x00, 0x00, 0x00, 0x00, 0x00, 0x00, 0x00, 0x00, 0x00, 0x00, 0x00, 
  0x00, 0x00, 0x00, 0x00, 0x00, 0x00, 0x00, 0x00, 0x00, 0x00, 0x00, 0x00, 
  0x00, 0x00, 0x00, 0x00, 0x00, 0x00, 0x00, 0x00, 0x00, 0x00, 0x00, 0x00, 
  0x00, 0x00, 0x00, 0x00, 0x00, 0x00, 0x00, 0x00, 0x00, 0x00, 0x00, 0x00, 
  0x00, 0x00, 0x00, 0x00, 0x00, 0x00, 0x00, 0x00, 0x00, 0x00, 0x00, 0x00, 
  0x40, 0x00, 0x00, 0x00, 0xbe, 0x89, 0x09, 0x3c, 0xd7, 0x3d, 0x40, 0x3c, 
  0xd8, 0xb0, 0xa8, 0x3c, 0x43, 0x15, 0x88, 0x3c, 0x49, 0x8e, 0xe9, 0x3b, 
  0xe2, 0x4c, 0xa4, 0x3c, 0x9d, 0x46, 0x85, 0x3c, 0x8a, 0x25, 0x45, 0x3c, 
  0xe5, 0x7e, 0x60, 0x3c, 0x7b, 0x51, 0x20, 0x3c, 0x0f, 0xec, 0x2d, 0x3c, 
  0x0a, 0x74, 0x68, 0x3c, 0x8c, 0xe9, 0x7f, 0x3c, 0x77, 0x15, 0x93, 0x3c, 
  0xd0, 0x1a, 0x5f, 0x3b, 0x74, 0xd8, 0x26, 0x3c, 0xd4, 0x15, 0x60, 0x3c, 
  0x1f, 0x90, 0x73, 0x3b, 0x39, 0x65, 0x5f, 0x3c, 0x1d, 0x88, 0x87, 0x3c, 
  0xe8, 0x64, 0x1b, 0x3c, 0x28, 0xdf, 0x40, 0x3c, 0xd0, 0xa4, 0x34, 0x3c, 
  0x2c, 0x1e, 0x83, 0x3c, 0x2c, 0xc7, 0xad, 0x3c, 0xc1, 0x87, 0x2f, 0x3c, 
  0x19, 0xae, 0x73, 0x3c, 0x8c, 0x07, 0x67, 0x3c, 0x88, 0x0b, 0xb9, 0x3c, 
  0x47, 0x98, 0xad, 0x3c, 0x3f, 0x2b, 0x96, 0x3b, 0xcc, 0x19, 0x6b, 0x3c, 
  0x06, 0xf7, 0x37, 0x3c, 0x35, 0x2a, 0x2c, 0x3c, 0xc0, 0x26, 0xad, 0x3c, 
  0x9d, 0x28, 0x75, 0x3c, 0xdb, 0x34, 0x1b, 0x3c, 0x5e, 0xb6, 0x1e, 0x3c, 
  0xd6, 0xa1, 0xaf, 0x3c, 0xb1, 0x31, 0x7c, 0x3b, 0x26, 0xe0, 0x28, 0x3c, 
  0x50, 0x1d, 0x68, 0x3c, 0x2d, 0xc6, 0xb8, 0x3c, 0xa3, 0x76, 0x44, 0x3c, 
  0x64, 0xb0, 0x5b, 0x3c, 0x28, 0xba, 0xbc, 0x3c, 0x52, 0x22, 0x74, 0x3c, 
  0x81, 0x76, 0x74, 0x3c, 0x55, 0x17, 0x07, 0x3c, 0x57, 0x77, 0xde, 0x3b, 
  0x5d, 0x7e, 0x9e, 0x3c, 0xf2, 0x35, 0x87, 0x3b, 0x07, 0x2e, 0x1f, 0x3c, 
  0x74, 0x52, 0x15, 0x3c, 0x42, 0x39, 0x40, 0x3c, 0x0e, 0xfa, 0x74, 0x3c, 
  0x7d, 0x6f, 0x85, 0x3c, 0xaf, 0x8a, 0x47, 0x3c, 0x22, 0x51, 0x8a, 0x3c, 
  0xa4, 0xfe, 0x75, 0x3c, 0x71, 0x7a, 0x97, 0x3c, 0x68, 0x36, 0x81, 0x3c, 
  0x5e, 0x10, 0x91, 0x3c, 0xde, 0x58, 0x66, 0x3c, 0x11, 0x00, 0x00, 0x00, 
  0x74, 0x66, 0x6c, 0x2e, 0x70, 0x73, 0x65, 0x75, 0x64, 0x6f, 0x5f, 0x71, 
  0x63, 0x6f, 0x6e, 0x73, 0x74, 0x00, 0x00, 0x00, 0x01, 0x00, 0x00, 0x00, 
  0x40, 0x00, 0x00, 0x00, 0x2a, 0xec, 0xff, 0xff, 0x00, 0x00, 0x00, 0x01, 
  0x14, 0x00, 0x00, 0x00, 0x28, 0x03, 0x00, 0x00, 0x0f, 0x00, 0x00, 0x00, 
  0x00, 0x00, 0x00, 0x09, 0x84, 0x03, 0x00, 0x00, 0xa4, 0xeb, 0xff, 0xff, 
  0x08, 0x00, 0x00, 0x00, 0x0c, 0x02, 0x00, 0x00, 0x40, 0x00, 0x00, 0x00, 
  0x00, 0x00, 0x00, 0x00, 0x00, 0x00, 0x00, 0x00, 0x00, 0x00, 0x00, 0x00, 
  0x00, 0x00, 0x00, 0x00, 0x00, 0x00, 0x00, 0x00, 0x00, 0x00, 0x00, 0x00, 
  0x00, 0x00, 0x00, 0x00, 0x00, 0x00, 0x00, 0x00, 0x00, 0x00, 0x00, 0x00, 
  0x00, 0x00, 0x00, 0x00, 0x00, 0x00, 0x00, 0x00, 0x00, 0x00, 0x00, 0x00, 
  0x00, 0x00, 0x00, 0x00, 0x00, 0x00, 0x00, 0x00, 0x00, 0x00, 0x00, 0x00, 
  0x00, 0x00, 0x00, 0x00, 0x00, 0x00, 0x00, 0x00, 0x00, 0x00, 0x00, 0x00, 
  0x00, 0x00, 0x00, 0x00, 0x00, 0x00, 0x00, 0x00, 0x00, 0x00, 0x00, 0x00, 
  0x00, 0x00, 0x00, 0x00, 0x00, 0x00, 0x00, 0x00, 0x00, 0x00, 0x00, 0x00, 
  0x00, 0x00, 0x00, 0x00, 0x00, 0x00, 0x00, 0x00, 0x00, 0x00, 0x00, 0x00, 
  0x00, 0x00, 0x00, 0x00, 0x00, 0x00, 0x00, 0x00, 0x00, 0x00, 0x00, 0x00, 
  0x00, 0x00, 0x00, 0x00, 0x00, 0x00, 0x00, 0x00, 0x00, 0x00, 0x00, 0x00, 
  0x00, 0x00, 0x00, 0x00, 0x00, 0x00, 0x00, 0x00, 0x00, 0x00, 0x00, 0x00, 
  0x00, 0x00, 0x00, 0x00, 0x00, 0x00, 0x00, 0x00, 0x00, 0x00, 0x00, 0x00, 
  0x00, 0x00, 0x00, 0x00, 0x00, 0x00, 0x00, 0x00, 0x00, 0x00, 0x00, 0x00, 
  0x00, 0x00, 0x00, 0x00, 0x00, 0x00, 0x00, 0x00, 0x00, 0x00, 0x00, 0x00, 
  0x00, 0x00, 0x00, 0x00, 0x00, 0x00, 0x00, 0x00, 0x00, 0x00, 0x00, 0x00, 
  0x00, 0x00, 0x00, 0x00, 0x00, 0x00, 0x00, 0x00, 0x00, 0x00, 0x00, 0x00, 
  0x00, 0x00, 0x00, 0x00, 0x00, 0x00, 0x00, 0x00, 0x00, 0x00, 0x00, 0x00, 
  0x00, 0x00, 0x00, 0x00, 0x00, 0x00, 0x00, 0x00, 0x00, 0x00, 0x00, 0x00, 
  0x00, 0x00, 0x00, 0x00, 0x00, 0x00, 0x00, 0x00, 0x00, 0x00, 0x00, 0x00, 
  0x00, 0x00, 0x00, 0x00, 0x00, 0x00, 0x00, 0x00, 0x00, 0x00, 0x00, 0x00, 
  0x00, 0x00, 0x00, 0x00, 0x00, 0x00, 0x00, 0x00, 0x00, 0x00, 0x00, 0x00, 
  0x00, 0x00, 0x00, 0x00, 0x00, 0x00, 0x00, 0x00, 0x00, 0x00, 0x00, 0x00, 
  0x00, 0x00, 0x00, 0x00, 0x00, 0x00, 0x00, 0x00, 0x00, 0x00, 0x00, 0x00, 
  0x00, 0x00, 0x00, 0x00, 0x00, 0x00, 0x00, 0x00, 0x00, 0x00, 0x00, 0x00, 
  0x00, 0x00, 0x00, 0x00, 0x00, 0x00, 0x00, 0x00, 0x00, 0x00, 0x00, 0x00, 
  0x00, 0x00, 0x00, 0x00, 0x00, 0x00, 0x00, 0x00, 0x00, 0x00, 0x00, 0x00, 
  0x00, 0x00, 0x00, 0x00, 0x00, 0x00, 0x00, 0x00, 0x00, 0x00, 0x00, 0x00, 
  0x00, 0x00, 0x00, 0x00, 0x00, 0x00, 0x00, 0x00, 0x00, 0x00, 0x00, 0x00, 
  0x00, 0x00, 0x00, 0x00, 0x00, 0x00, 0x00, 0x00, 0x00, 0x00, 0x00, 0x00, 
  0x00, 0x00, 0x00, 0x00, 0x00, 0x00, 0x00, 0x00, 0x00, 0x00, 0x00, 0x00, 
  0x00, 0x00, 0x00, 0x00, 0x00, 0x00, 0x00, 0x00, 0x00, 0x00, 0x00, 0x00, 
  0x00, 0x00, 0x00, 0x00, 0x00, 0x00, 0x00, 0x00, 0x00, 0x00, 0x00, 0x00, 
  0x00, 0x00, 0x00, 0x00, 0x00, 0x00, 0x00, 0x00, 0x00, 0x00, 0x00, 0x00, 
  0x00, 0x00, 0x00, 0x00, 0x00, 0x00, 0x00, 0x00, 0x00, 0x00, 0x00, 0x00, 
  0x00, 0x00, 0x00, 0x00, 0x00, 0x00, 0x00, 0x00, 0x00, 0x00, 0x00, 0x00, 
  0x00, 0x00, 0x00, 0x00, 0x00, 0x00, 0x00, 0x00, 0x00, 0x00, 0x00, 0x00, 
  0x00, 0x00, 0x00, 0x00, 0x00, 0x00, 0x00, 0x00, 0x00, 0x00, 0x00, 0x00, 
  0x00, 0x00, 0x00, 0x00, 0x00, 0x00, 0x00, 0x00, 0x00, 0x00, 0x00, 0x00, 
  0x00, 0x00, 0x00, 0x00, 0x00, 0x00, 0x00, 0x00, 0x00, 0x00, 0x00, 0x00, 
  0x00, 0x00, 0x00, 0x00, 0x00, 0x00, 0x00, 0x00, 0x00, 0x00, 0x00, 0x00, 
  0x00, 0x00, 0x00, 0x00, 0x00, 0x00, 0x00, 0x00, 0x00, 0x00, 0x00, 0x00, 
  0x00, 0x00, 0x00, 0x00, 0x00, 0x00, 0x00, 0x00, 0x00, 0x00, 0x00, 0x00, 
  0x40, 0x00, 0x00, 0x00, 0x0a, 0x67, 0xb5, 0x3b, 0x68, 0x8d, 0xfd, 0x3b, 
  0x9c, 0x7d, 0x5e, 0x3c, 0xc5, 0x7b, 0x33, 0x3c, 0x7a, 0x05, 0x9a, 0x3b, 
  0x30, 0xb3, 0x58, 0x3c, 0xec, 0xc7, 0x2f, 0x3c, 0xcb, 0x02, 0x02, 0x3c, 
  0xed, 0x0b, 0x14, 0x3c, 0xab, 0x72, 0xd3, 0x3b, 0xef, 0x63, 0xe5, 0x3b, 
  0x59, 0x4b, 0x19, 0x3c, 0xc2, 0xc3, 0x28, 0x3c, 0x21, 0xfe, 0x41, 0x3c, 
  0x1a, 0x21, 0x13, 0x3b, 0x8f, 0x0e, 0xdc, 0x3b, 0xa3, 0xc6, 0x13, 0x3c, 
  0xea, 0x9e, 0x20, 0x3b, 0x2c, 0x52, 0x13, 0x3c, 0x9a, 0xc1, 0x32, 0x3c, 
  0x11, 0xf4, 0xcc, 0x3b, 0x2c, 0x62, 0xfe, 0x3b, 0x7b, 0x41, 0xee, 0x3b, 
  0x4b, 0xef, 0x2c, 0x3c, 0x49, 0x33, 0x65, 0x3c, 0xee, 0x82, 0xe7, 0x3b, 
  0xae, 0xb2, 0x20, 0x3c, 0xfa, 0x5a, 0x18, 0x3c, 0x8a, 0x0f, 0x74, 0x3c, 
  0x6f, 0xf5, 0x64, 0x3c, 0xcb, 0x0f, 0x46, 0x3b, 0x4e, 0x0a, 0x1b, 0x3c, 
  0xd9, 0xa2, 0xf2, 0x3b, 0x9c, 0x12, 0xe3, 0x3b, 0xb3, 0x5f, 0x64, 0x3c, 
  0x4d, 0xac, 0x21, 0x3c, 0xb1, 0xb4, 0xcc, 0x3b, 0x72, 0x54, 0xd1, 0x3b, 
  0x55, 0xa5, 0x67, 0x3c, 0x0b, 0x50, 0x26, 0x3b, 0x00, 0xbc, 0xde, 0x3b, 
  0x27, 0x12, 0x19, 0x3c, 0x11, 0xb4, 0x73, 0x3c, 0x73, 0x8f, 0x01, 0x3c, 
  0x74, 0xe0, 0x10, 0x3c, 0xcb, 0xea, 0x78, 0x3c, 0x54, 0xff, 0x20, 0x3c, 
  0xd8, 0x36, 0x21, 0x3c, 0xda, 0x2c, 0xb2, 0x3b, 0x4d, 0xb5, 0x92, 0x3b, 
  0x94, 0x0a, 0x51, 0x3c, 0x3a, 0x55, 0x32, 0x3b, 0x44, 0xf2, 0xd1, 0x3b, 
  0xdc, 0xf1, 0xc4, 0x3b, 0x5d, 0x87, 0xfd, 0x3b, 0x98, 0x8d, 0x21, 0x3c, 
  0xd6, 0xfd, 0x2f, 0x3c, 0x23, 0x97, 0x03, 0x3c, 0x05, 0x6e, 0x36, 0x3c, 
  0x71, 0x39, 0x22, 0x3c, 0xe4, 0xc9, 0x47, 0x3c, 0xf7, 0x6b, 0x2a, 0x3c, 
  0x1e, 0x54, 0x3f, 0x3c, 0xc9, 0xe7, 0x17, 0x3c, 0x61, 0x00, 0x00, 0x00, 
  0x6d, 0x6f, 0x64, 0x65, 0x6c, 0x2f, 0x71, 0x75, 0x61, 0x6e, 0x74, 0x5f, 
  0x63, 0x6f, 0x6e, 0x76, 0x32, 0x64, 0x5f, 0x32, 0x2f, 0x43, 0x6f, 0x6e, 
  0x76, 0x32, 0x44, 0x3b, 0x6d, 0x6f, 0x64, 0x65, 0x6c, 0x2f, 0x71, 0x75, 
  0x61, 0x6e, 0x74, 0x5f, 0x63, 0x6f, 0x6e, 0x76, 0x32, 0x64, 0x5f, 0x32, 
  0x2f, 0x4c, 0x61, 0x73, 0x74, 0x56, 0x61, 0x6c, 0x75, 0x65, 0x51, 0x75, 
  0x61, 0x6e, 0x74, 0x2f, 0x46, 0x61, 0x6b, 0x65, 0x51, 0x75, 0x61, 0x6e, 
  0x74, 0x57, 0x69, 0x74, 0x68, 0x4d, 0x69, 0x6e, 0x4d, 0x61, 0x78, 0x56, 
  0x61, 0x72, 0x73, 0x50, 0x65, 0x72, 0x43, 0x68, 0x61, 0x6e, 0x6e, 0x65, 
  0x6c, 0x00, 0x00, 0x00, 0x04, 0x00, 0x00, 0x00, 0x40, 0x00, 0x00, 0x00, 
  0x01, 0x00, 0x00, 0x00, 0x01, 0x00, 0x00, 0x00, 0x20, 0x00, 0x00, 0x00, 
  0x82, 0xef, 0xff, 0xff, 0x00, 0x00, 0x00, 0x01, 0x18, 0x00, 0x00, 0x00, 
  0x28, 0x00, 0x00, 0x00, 0x44, 0x00, 0x00, 0x00, 0x0e, 0x00, 0x00, 0x00, 
  0x00, 0x00, 0x00, 0x09, 0x68, 0x00, 0x00, 0x00, 0x04, 0x00, 0x00, 0x00, 
  0xff, 0xff, 0xff, 0xff, 0x08, 0x00, 0x00, 0x00, 0x08, 0x00, 0x00, 0x00, 
  0x20, 0x00, 0x00, 0x00, 0x6c, 0xef, 0xff, 0xff, 0x08, 0x00, 0x00, 0x00, 
  0x10, 0x00, 0x00, 0x00, 0x01, 0x00, 0x00, 0x00, 0x18, 0x00, 0x00, 0x00, 
  0x00, 0x00, 0x00, 0x00, 0x01, 0x00, 0x00, 0x00, 0xeb, 0x18, 0xc2, 0x3f, 
  0x28, 0x00, 0x00, 0x00, 0x6d, 0x6f, 0x64, 0x65, 0x6c, 0x2f, 0x71, 0x75, 
  0x61, 0x6e, 0x74, 0x5f, 0x64, 0x65, 0x70, 0x74, 0x68, 0x77, 0x69, 0x73, 
  0x65, 0x5f, 0x63, 0x6f, 0x6e, 0x76, 0x32, 0x64, 0x5f, 0x31, 0x2f, 0x64, 
  0x65, 0x70, 0x74, 0x68, 0x77, 0x69, 0x73, 0x65, 0x00, 0x00, 0x00, 0x00, 
  0x04, 0x00, 0x00, 0x00, 0x01, 0x00, 0x00, 0x00, 0x08, 0x00, 0x00, 0x00, 
  0x08, 0x00, 0x00, 0x00, 0x20, 0x00, 0x00, 0x00, 0x72, 0xf0, 0xff, 0xff, 
  0x00, 0x00, 0x00, 0x01, 0x14, 0x00, 0x00, 0x00, 0xa8, 0x01, 0x00, 0x00, 
  0x0d, 0x00, 0x00, 0x00, 0x00, 0x00, 0x00, 0x02, 0xb4, 0x01, 0x00, 0x00, 
  0xec, 0xef, 0xff, 0xff, 0x08, 0x00, 0x00, 0x00, 0x0c, 0x01, 0x00, 0x00, 
  0x20, 0x00, 0x00, 0x00, 0x00, 0x00, 0x00, 0x00, 0x00, 0x00, 0x00, 0x00, 
  0x00, 0x00, 0x00, 0x00, 0x00, 0x00, 0x00, 0x00, 0x00, 0x00, 0x00, 0x00, 
  0x00, 0x00, 0x00, 0x00, 0x00, 0x00, 0x00, 0x00, 0x00, 0x00, 0x00, 0x00, 
  0x00, 0x00, 0x00, 0x00, 0x00, 0x00, 0x00, 0x00, 0x00, 0x00, 0x00, 0x00, 
  0x00, 0x00, 0x00, 0x00, 0x00, 0x00, 0x00, 0x00, 0x00, 0x00, 0x00, 0x00, 
  0x00, 0x00, 0x00, 0x00, 0x00, 0x00, 0x00, 0x00, 0x00, 0x00, 0x00, 0x00, 
  0x00, 0x00, 0x00, 0x00, 0x00, 0x00, 0x00, 0x00, 0x00, 0x00, 0x00, 0x00, 
  0x00, 0x00, 0x00, 0x00, 0x00, 0x00, 0x00, 0x00, 0x00, 0x00, 0x00, 0x00, 
  0x00, 0x00, 0x00, 0x00, 0x00, 0x00, 0x00, 0x00, 0x00, 0x00, 0x00, 0x00, 
  0x00, 0x00, 0x00, 0x00, 0x00, 0x00, 0x00, 0x00, 0x00, 0x00, 0x00, 0x00, 
  0x00, 0x00, 0x00, 0x00, 0x00, 0x00, 0x00, 0x00, 0x00, 0x00, 0x00, 0x00, 
  0x00, 0x00, 0x00, 0x00, 0x00, 0x00, 0x00, 0x00, 0x00, 0x00, 0x00, 0x00, 
  0x00, 0x00, 0x00, 0x00, 0x00, 0x00, 0x00, 0x00, 0x00, 0x00, 0x00, 0x00, 
  0x00, 0x00, 0x00, 0x00, 0x00, 0x00, 0x00, 0x00, 0x00, 0x00, 0x00, 0x00, 
  0x00, 0x00, 0x00, 0x00, 0x00, 0x00, 0x00, 0x00, 0x00, 0x00, 0x00, 0x00, 
  0x00, 0x00, 0x00, 0x00, 0x00, 0x00, 0x00, 0x00, 0x00, 0x00, 0x00, 0x00, 
  0x00, 0x00, 0x00, 0x00, 0x00, 0x00, 0x00, 0x00, 0x00, 0x00, 0x00, 0x00, 
  0x00, 0x00, 0x00, 0x00, 0x00, 0x00, 0x00, 0x00, 0x00, 0x00, 0x00, 0x00, 
  0x00, 0x00, 0x00, 0x00, 0x00, 0x00, 0x00, 0x00, 0x00, 0x00, 0x00, 0x00, 
  0x00, 0x00, 0x00, 0x00, 0x00, 0x00, 0x00, 0x00, 0x00, 0x00, 0x00, 0x00, 
  0x00, 0x00, 0x00, 0x00, 0x00, 0x00, 0x00, 0x00, 0x00, 0x00, 0x00, 0x00, 
  0x00, 0x00, 0x00, 0x00, 0x00, 0x00, 0x00, 0x00, 0x00, 0x00, 0x00, 0x00, 
  0x20, 0x00, 0x00, 0x00, 0x81, 0x42, 0xc2, 0x3b, 0x81, 0x42, 0xc2, 0x3b, 
  0x81, 0x42, 0xc2, 0x3b, 0x81, 0x42, 0xc2, 0x3b, 0x81, 0x42, 0xc2, 0x3b, 
  0x81, 0x42, 0xc2, 0x3b, 0x81, 0x42, 0xc2, 0x3b, 0x81, 0x42, 0xc2, 0x3b, 
  0x81, 0x42, 0xc2, 0x3b, 0x81, 0x42, 0xc2, 0x3b, 0x81, 0x42, 0xc2, 0x3b, 
  0x81, 0x42, 0xc2, 0x3b, 0x81, 0x42, 0xc2, 0x3b, 0x81, 0x42, 0xc2, 0x3b, 
  0x81, 0x42, 0xc2, 0x3b, 0x81, 0x42, 0xc2, 0x3b, 0x81, 0x42, 0xc2, 0x3b, 
  0x81, 0x42, 0xc2, 0x3b, 0x81, 0x42, 0xc2, 0x3b, 0x81, 0x42, 0xc2, 0x3b, 
  0x81, 0x42, 0xc2, 0x3b, 0x81, 0x42, 0xc2, 0x3b, 0x81, 0x42, 0xc2, 0x3b, 
  0x81, 0x42, 0xc2, 0x3b, 0x81, 0x42, 0xc2, 0x3b, 0x81, 0x42, 0xc2, 0x3b, 
  0x81, 0x42, 0xc2, 0x3b, 0x81, 0x42, 0xc2, 0x3b, 0x81, 0x42, 0xc2, 0x3b, 
  0x81, 0x42, 0xc2, 0x3b, 0x81, 0x42, 0xc2, 0x3b, 0x81, 0x42, 0xc2, 0x3b, 
  0x12, 0x00, 0x00, 0x00, 0x74, 0x66, 0x6c, 0x2e, 0x70, 0x73, 0x65, 0x75, 
  0x64, 0x6f, 0x5f, 0x71, 0x63, 0x6f, 0x6e, 0x73, 0x74, 0x34, 0x00, 0x00, 
  0x01, 0x00, 0x00, 0x00, 0x20, 0x00, 0x00, 0x00, 0x46, 0xf2, 0xff, 0xff, 
  0x00, 0x00, 0x00, 0x01, 0x14, 0x00, 0x00, 0x00, 0xac, 0x01, 0x00, 0x00, 
  0x0c, 0x00, 0x00, 0x00, 0x00, 0x00, 0x00, 0x09, 0x20, 0x02, 0x00, 0x00, 
  0x1a, 0xf7, 0xff, 0xff, 0x03, 0x00, 0x00, 0x00, 0x08, 0x00, 0x00, 0x00, 
  0x0c, 0x01, 0x00, 0x00, 0x20, 0x00, 0x00, 0x00, 0x00, 0x00, 0x00, 0x00, 
  0x00, 0x00, 0x00, 0x00, 0x00, 0x00, 0x00, 0x00, 0x00, 0x00, 0x00, 0x00, 
  0x00, 0x00, 0x00, 0x00, 0x00, 0x00, 0x00, 0x00, 0x00, 0x00, 0x00, 0x00, 
  0x00, 0x00, 0x00, 0x00, 0x00, 0x00, 0x00, 0x00, 0x00, 0x00, 0x00, 0x00, 
  0x00, 0x00, 0x00, 0x00, 0x00, 0x00, 0x00, 0x00, 0x00, 0x00, 0x00, 0x00, 
  0x00, 0x00, 0x00, 0x00, 0x00, 0x00, 0x00, 0x00, 0x00, 0x00, 0x00, 0x00, 
  0x00, 0x00, 0x00, 0x00, 0x00, 0x00, 0x00, 0x00, 0x00, 0x00, 0x00, 0x00, 
  0x00, 0x00, 0x00, 0x00, 0x00, 0x00, 0x00, 0x00, 0x00, 0x00, 0x00, 0x00, 
  0x00, 0x00, 0x00, 0x00, 0x00, 0x00, 0x00, 0x00, 0x00, 0x00, 0x00, 0x00, 
  0x00, 0x00, 0x00, 0x00, 0x00, 0x00, 0x00, 0x00, 0x00, 0x00, 0x00, 0x00, 
  0x00, 0x00, 0x00, 0x00, 0x00, 0x00, 0x00, 0x00, 0x00, 0x00, 0x00, 0x00, 
  0x00, 0x00, 0x00, 0x00, 0x00, 0x00, 0x00, 0x00, 0x00, 0x00, 0x00, 0x00, 
  0x00, 0x00, 0x00, 0x00, 0x00, 0x00, 0x00, 0x00, 0x00, 0x00, 0x00, 0x00, 
  0x00, 0x00, 0x00, 0x00, 0x00, 0x00, 0x00, 0x00, 0x00, 0x00, 0x00, 0x00, 
  0x00, 0x00, 0x00, 0x00, 0x00, 0x00, 0x00, 0x00, 0x00, 0x00, 0x00, 0x00, 
  0x00, 0x00, 0x00, 0x00, 0x00, 0x00, 0x00, 0x00, 0x00, 0x00, 0x00, 0x00, 
  0x00, 0x00, 0x00, 0x00, 0x00, 0x00, 0x00, 0x00, 0x00, 0x00, 0x00, 0x00, 
  0x00, 0x00, 0x00, 0x00, 0x00, 0x00, 0x00, 0x00, 0x00, 0x00, 0x00, 0x00, 
  0x00, 0x00, 0x00, 0x00, 0x00, 0x00, 0x00, 0x00, 0x00, 0x00, 0x00, 0x00, 
  0x00, 0x00, 0x00, 0x00, 0x00, 0x00, 0x00, 0x00, 0x00, 0x00, 0x00, 0x00, 
  0x00, 0x00, 0x00, 0x00, 0x00, 0x00, 0x00, 0x00, 0x00, 0x00, 0x00, 0x00, 
  0x00, 0x00, 0x00, 0x00, 0x00, 0x00, 0x00, 0x00, 0x00, 0x00, 0x00, 0x00, 
  0x00, 0x00, 0x00, 0x00, 0x20, 0x00, 0x00, 0x00, 0x36, 0x3b, 0x6f, 0x3c, 
  0x36, 0x3b, 0x6f, 0x3c, 0x36, 0x3b, 0x6f, 0x3c, 0x36, 0x3b, 0x6f, 0x3c, 
  0x36, 0x3b, 0x6f, 0x3c, 0x36, 0x3b, 0x6f, 0x3c, 0x36, 0x3b, 0x6f, 0x3c, 
  0x36, 0x3b, 0x6f, 0x3c, 0x36, 0x3b, 0x6f, 0x3c, 0x36, 0x3b, 0x6f, 0x3c, 
  0x36, 0x3b, 0x6f, 0x3c, 0x36, 0x3b, 0x6f, 0x3c, 0x36, 0x3b, 0x6f, 0x3c, 
  0x36, 0x3b, 0x6f, 0x3c, 0x36, 0x3b, 0x6f, 0x3c, 0x36, 0x3b, 0x6f, 0x3c, 
  0x36, 0x3b, 0x6f, 0x3c, 0x36, 0x3b, 0x6f, 0x3c, 0x36, 0x3b, 0x6f, 0x3c, 
  0x36, 0x3b, 0x6f, 0x3c, 0x36, 0x3b, 0x6f, 0x3c, 0x36, 0x3b, 0x6f, 0x3c, 
  0x36, 0x3b, 0x6f, 0x3c, 0x36, 0x3b, 0x6f, 0x3c, 0x36, 0x3b, 0x6f, 0x3c, 
  0x36, 0x3b, 0x6f, 0x3c, 0x36, 0x3b, 0x6f, 0x3c, 0x36, 0x3b, 0x6f, 0x3c, 
  0x36, 0x3b, 0x6f, 0x3c, 0x36, 0x3b, 0x6f, 0x3c, 0x36, 0x3b, 0x6f, 0x3c, 
  0x36, 0x3b, 0x6f, 0x3c, 0x78, 0x00, 0x00, 0x00, 0x6d, 0x6f, 0x64, 0x65, 
  0x6c, 0x2f, 0x71, 0x75, 0x61, 0x6e, 0x74, 0x5f, 0x64, 0x65, 0x70, 0x74, 
  0x68, 0x77, 0x69, 0x73, 0x65, 0x5f, 0x63, 0x6f, 0x6e, 0x76, 0x32, 0x64, 
  0x5f, 0x31, 0x2f, 0x64, 0x65, 0x70, 0x74, 0x68, 0x77, 0x69, 0x73, 0x65, 
  0x3b, 0x6d, 0x6f, 0x64, 0x65, 0x6c, 0x2f, 0x71, 0x75, 0x61, 0x6e, 0x74, 
  0x5f, 0x64, 0x65, 0x70, 0x74, 0x68, 0x77, 0x69, 0x73, 0x65, 0x5f, 0x63, 
  0x6f, 0x6e, 0x76, 0x32, 0x64, 0x5f, 0x31, 0x2f, 0x4c, 0x61, 0x73, 0x74, 
  0x56, 0x61, 0x6c, 0x75, 0x65, 0x51, 0x75, 0x61, 0x6e, 0x74, 0x2f, 0x46, 
  0x61, 0x6b, 0x65, 0x51, 0x75, 0x61, 0x6e, 0x74, 0x57, 0x69, 0x74, 0x68, 
  0x4d, 0x69, 0x6e, 0x4d, 0x61, 0x78, 0x56, 0x61, 0x72, 0x73, 0x50, 0x65, 
  0x72, 0x43, 0x68, 0x61, 0x6e, 0x6e, 0x65, 0x6c, 0x00, 0x00, 0x00, 0x00, 
  0x04, 0x00, 0x00, 0x00, 0x01, 0x00, 0x00, 0x00, 0x03, 0x00, 0x00, 0x00, 
  0x03, 0x00, 0x00, 0x00, 0x20, 0x00, 0x00, 0x00, 0x3a, 0xf4, 0xff, 0xff, 
  0x00, 0x00, 0x00, 0x01, 0x18, 0x00, 0x00, 0x00, 0x28, 0x00, 0x00, 0x00, 
  0x48, 0x00, 0x00, 0x00, 0x0b, 0x00, 0x00, 0x00, 0x00, 0x00, 0x00, 0x09, 
  0xc0, 0x00, 0x00, 0x00, 0x04, 0x00, 0x00, 0x00, 0xff, 0xff, 0xff, 0xff, 
  0x10, 0x00, 0x00, 0x00, 0x10, 0x00, 0x00, 0x00, 0x20, 0x00, 0x00, 0x00, 
  0x24, 0xf4, 0xff, 0xff, 0x08, 0x00, 0x00, 0x00, 0x14, 0x00, 0x00, 0x00, 
  0x01, 0x00, 0x00, 0x00, 0x80, 0xff, 0xff, 0xff, 0xff, 0xff, 0xff, 0xff, 
  0x00, 0x00, 0x00, 0x00, 0x01, 0x00, 0x00, 0x00, 0x51, 0xe0, 0xcf, 0x3e, 
  0x7e, 0x00, 0x00, 0x00, 0x6d, 0x6f, 0x64, 0x65, 0x6c, 0x2f, 0x71, 0x75, 
  0x61, 0x6e, 0x74, 0x5f, 0x63, 0x6f, 0x6e, 0x76, 0x32, 0x64, 0x5f, 0x31, 
  0x2f, 0x52, 0x65, 0x6c, 0x75, 0x3b, 0x6d, 0x6f, 0x64, 0x65, 0x6c, 0x2f, 
  0x71, 0x75, 0x61, 0x6e, 0x74, 0x5f, 0x63, 0x6f, 0x6e, 0x76, 0x32, 0x64, 
  0x5f, 0x31, 0x2f, 0x42, 0x69, 0x61, 0x73, 0x41, 0x64, 0x64, 0x3b, 0x6d, 
  0x6f, 0x64, 0x65, 0x6c, 0x2f, 0x71, 0x75, 0x61, 0x6e, 0x74, 0x5f, 0x63, 
  0x6f, 0x6e, 0x76, 0x32, 0x64, 0x5f, 0x31, 0x2f, 0x43, 0x6f, 0x6e, 0x76, 
  0x32, 0x44, 0x3b, 0x6d, 0x6f, 0x64, 0x65, 0x6c, 0x2f, 0x71, 0x75, 0x61, 
  0x6e, 0x74, 0x5f, 0x63, 0x6f, 0x6e, 0x76, 0x32, 0x64, 0x5f, 0x31, 0x2f, 
  0x42, 0x69, 0x61, 0x73, 0x41, 0x64, 0x64, 0x2f, 0x52, 0x65, 0x61, 0x64, 
  0x56, 0x61, 0x72, 0x69, 0x61, 0x62, 0x6c, 0x65, 0x4f, 0x70, 0x00, 0x00, 
  0x04, 0x00, 0x00, 0x00, 0x01, 0x00, 0x00, 0x00, 0x10, 0x00, 0x00, 0x00, 
  0x10, 0x00, 0x00, 0x00, 0x20, 0x00, 0x00, 0x00, 0x82, 0xf5, 0xff, 0xff, 
  0x00, 0x00, 0x00, 0x01, 0x14, 0x00, 0x00, 0x00, 0xa4, 0x01, 0x00, 0x00, 
  0x0a, 0x00, 0x00, 0x00, 0x00, 0x00, 0x00, 0x02, 0xb0, 0x01, 0x00, 0x00, 
  0xfc, 0xf4, 0xff, 0xff, 0x08, 0x00, 0x00, 0x00, 0x08, 0x01, 0x00, 0x00, 
  0x20, 0x00, 0x00, 0x00, 0x00, 0x00, 0x00, 0x00, 0x00, 0x00, 0x00, 0x00, 
  0x00, 0x00, 0x00, 0x00, 0x00, 0x00, 0x00, 0x00, 0x00, 0x00, 0x00, 0x00, 
  0x00, 0x00, 0x00, 0x00, 0x00, 0x00, 0x00, 0x00, 0x00, 0x00, 0x00, 0x00, 
  0x00, 0x00, 0x00, 0x00, 0x00, 0x00, 0x00, 0x00, 0x00, 0x00, 0x00, 0x00, 
  0x00, 0x00, 0x00, 0x00, 0x00, 0x00, 0x00, 0x00, 0x00, 0x00, 0x00, 0x00, 
  0x00, 0x00, 0x00, 0x00, 0x00, 0x00, 0x00, 0x00, 0x00, 0x00, 0x00, 0x00, 
  0x00, 0x00, 0x00, 0x00, 0x00, 0x00, 0x00, 0x00, 0x00, 0x00, 0x00, 0x00, 
  0x00, 0x00, 0x00, 0x00, 0x00, 0x00, 0x00, 0x00, 0x00, 0x00, 0x00, 0x00, 
  0x00, 0x00, 0x00, 0x00, 0x00, 0x00, 0x00, 0x00, 0x00, 0x00, 0x00, 0x00, 
  0x00, 0x00, 0x00, 0x00, 0x00, 0x00, 0x00, 0x00, 0x00, 0x00, 0x00, 0x00, 
  0x00, 0x00, 0x00, 0x00, 0x00, 0x00, 0x00, 0x00, 0x00, 0x00, 0x00, 0x00, 
  0x00, 0x00, 0x00, 0x00, 0x00, 0x00, 0x00, 0x00, 0x00, 0x00, 0x00, 0x00, 
  0x00, 0x00, 0x00, 0x00, 0x00, 0x00, 0x00, 0x00, 0x00, 0x00, 0x00, 0x00, 
  0x00, 0x00, 0x00, 0x00, 0x00, 0x00, 0x00, 0x00, 0x00, 0x00, 0x00, 0x00, 
  0x00, 0x00, 0x00, 0x00, 0x00, 0x00, 0x00, 0x00, 0x00, 0x00, 0x00, 0x00, 
  0x00, 0x00, 0x00, 0x00, 0x00, 0x00, 0x00, 0x00, 0x00, 0x00, 0x00, 0x00, 
  0x00, 0x00, 0x00, 0x00, 0x00, 0x00, 0x00, 0x00, 0x00, 0x00, 0x00, 0x00, 
  0x00, 0x00, 0x00, 0x00, 0x00, 0x00, 0x00, 0x00, 0x00, 0x00, 0x00, 0x00, 
  0x00, 0x00, 0x00, 0x00, 0x00, 0x00, 0x00, 0x00, 0x00, 0x00, 0x00, 0x00, 
  0x00, 0x00, 0x00, 0x00, 0x00, 0x00, 0x00, 0x00, 0x00, 0x00, 0x00, 0x00, 
  0x00, 0x00, 0x00, 0x00, 0x00, 0x00, 0x00, 0x00, 0x00, 0x00, 0x00, 0x00, 
  0x00, 0x00, 0x00, 0x00, 0x00, 0x00, 0x00, 0x00, 0x20, 0x00, 0x00, 0x00, 
  0xaf, 0x83, 0xd8, 0x3a, 0xa8, 0x34, 0x37, 0x3b, 0x1f, 0x2b, 0x05, 0x3a, 
  0xeb, 0x5f, 0x97, 0x3a, 0xd8, 0x95, 0xea, 0x3a, 0xf6, 0xf1, 0xf6, 0x3a, 
  0x9c, 0xe2, 0x5a, 0x3b, 0x9a, 0x04, 0x9b, 0x3a, 0xa0, 0x35, 0xa4, 0x3a, 
  0xe7, 0x8e, 0xfe, 0x3a, 0xfa, 0xaf, 0xc2, 0x3a, 0x74, 0x0b, 0x19, 0x3b, 
  0xcc, 0xcf, 0xaf, 0x3a, 0x96, 0x60, 0x9c, 0x3a, 0x9e, 0x2b, 0xb4, 0x3a, 
  0x65, 0x3f, 0xff, 0x3a, 0xef, 0x17, 0x22, 0x3b, 0xdf, 0x0c, 0xf6, 0x3a, 
  0xf4, 0x5b, 0x1b, 0x3b, 0x31, 0xe7, 0x0a, 0x3b, 0x70, 0xd1, 0xbf, 0x3a, 
  0x4a, 0xf7, 0xef, 0x3a, 0x1a, 0x49, 0xd2, 0x3a, 0x55, 0x65, 0x00, 0x3b, 
  0x4f, 0x79, 0xf4, 0x3a, 0x34, 0x41, 0x06, 0x3b, 0x52, 0x01, 0xc9, 0x3a, 
  0x1f, 0x72, 0x21, 0x3b, 0xe6, 0xcd, 0x93, 0x3a, 0xb0, 0x06, 0x46, 0x3a, 
  0x50, 0xbb, 0x1e, 0x3b, 0xf3, 0xd4, 0x76, 0x3a, 0x12, 0x00, 0x00, 0x00, 
  0x74, 0x66, 0x6c, 0x2e, 0x70, 0x73, 0x65, 0x75, 0x64, 0x6f, 0x5f, 0x71, 
  0x63, 0x6f, 0x6e, 0x73, 0x74, 0x31, 0x00, 0x00, 0x01, 0x00, 0x00, 0x00, 
  0x20, 0x00, 0x00, 0x00, 0x52, 0xf7, 0xff, 0xff, 0x00, 0x00, 0x00, 0x01, 
  0x14, 0x00, 0x00, 0x00, 0xa8, 0x01, 0x00, 0x00, 0x09, 0x00, 0x00, 0x00, 
  0x00, 0x00, 0x00, 0x09, 0x04, 0x02, 0x00, 0x00, 0xcc, 0xf6, 0xff, 0xff, 
  0x08, 0x00, 0x00, 0x00, 0x0c, 0x01, 0x00, 0x00, 0x20, 0x00, 0x00, 0x00, 
  0x00, 0x00, 0x00, 0x00, 0x00, 0x00, 0x00, 0x00, 0x00, 0x00, 0x00, 0x00, 
  0x00, 0x00, 0x00, 0x00, 0x00, 0x00, 0x00, 0x00, 0x00, 0x00, 0x00, 0x00, 
  0x00, 0x00, 0x00, 0x00, 0x00, 0x00, 0x00, 0x00, 0x00, 0x00, 0x00, 0x00, 
  0x00, 0x00, 0x00, 0x00, 0x00, 0x00, 0x00, 0x00, 0x00, 0x00, 0x00, 0x00, 
  0x00, 0x00, 0x00, 0x00, 0x00, 0x00, 0x00, 0x00, 0x00, 0x00, 0x00, 0x00, 
  0x00, 0x00, 0x00, 0x00, 0x00, 0x00, 0x00, 0x00, 0x00, 0x00, 0x00, 0x00, 
  0x00, 0x00, 0x00, 0x00, 0x00, 0x00, 0x00, 0x00, 0x00, 0x00, 0x00, 0x00, 
  0x00, 0x00, 0x00, 0x00, 0x00, 0x00, 0x00, 0x00, 0x00, 0x00, 0x00, 0x00, 
  0x00, 0x00, 0x00, 0x00, 0x00, 0x00, 0x00, 0x00, 0x00, 0x00, 0x00, 0x00, 
  0x00, 0x00, 0x00, 0x00, 0x00, 0x00, 0x00, 0x00, 0x00, 0x00, 0x00, 0x00, 
  0x00, 0x00, 0x00, 0x00, 0x00, 0x00, 0x00, 0x00, 0x00, 0x00, 0x00, 0x00, 
  0x00, 0x00, 0x00, 0x00, 0x00, 0x00, 0x00, 0x00, 0x00, 0x00, 0x00, 0x00, 
  0x00, 0x00, 0x00, 0x00, 0x00, 0x00, 0x00, 0x00, 0x00, 0x00, 0x00, 0x00, 
  0x00, 0x00, 0x00, 0x00, 0x00, 0x00, 0x00, 0x00, 0x00, 0x00, 0x00, 0x00, 
  0x00, 0x00, 0x00, 0x00, 0x00, 0x00, 0x00, 0x00, 0x00, 0x00, 0x00, 0x00, 
  0x00, 0x00, 0x00, 0x00, 0x00, 0x00, 0x00, 0x00, 0x00, 0x00, 0x00, 0x00, 
  0x00, 0x00, 0x00, 0x00, 0x00, 0x00, 0x00, 0x00, 0x00, 0x00, 0x00, 0x00, 
  0x00, 0x00, 0x00, 0x00, 0x00, 0x00, 0x00, 0x00, 0x00, 0x00, 0x00, 0x00, 
  0x00, 0x00, 0x00, 0x00, 0x00, 0x00, 0x00, 0x00, 0x00, 0x00, 0x00, 0x00, 
  0x00, 0x00, 0x00, 0x00, 0x00, 0x00, 0x00, 0x00, 0x00, 0x00, 0x00, 0x00, 
  0x00, 0x00, 0x00, 0x00, 0x00, 0x00, 0x00, 0x00, 0x00, 0x00, 0x00, 0x00, 
  0x00, 0x00, 0x00, 0x00, 0x00, 0x00, 0x00, 0x00, 0x20, 0x00, 0x00, 0x00, 
  0x83, 0xd8, 0x22, 0x3c, 0x20, 0xcb, 0x89, 0x3c, 0x86, 0x51, 0x48, 0x3b, 
  0x86, 0xb4, 0xe3, 0x3b, 0xf6, 0x6f, 0x30, 0x3c, 0xc5, 0xbb, 0x39, 0x3c, 
  0xff, 0xa0, 0xa4, 0x3c, 0x83, 0x2f, 0xe9, 0x3b, 0x0b, 0x03, 0xf7, 0x3b, 
  0x9d, 0x75, 0x3f, 0x3c, 0xdd, 0x6d, 0x12, 0x3c, 0xa5, 0x37, 0x66, 0x3c, 
  0x76, 0x3b, 0x04, 0x3c, 0xf8, 0x3a, 0xeb, 0x3b, 0xb2, 0x82, 0x07, 0x3c, 
  0x5c, 0xfa, 0x3f, 0x3c, 0x35, 0xd4, 0x73, 0x3c, 0x77, 0x0f, 0x39, 0x3c, 
  0xe9, 0xb2, 0x69, 0x3c, 0xdf, 0xf1, 0x50, 0x3c, 0x66, 0x45, 0x10, 0x3c, 
  0xf8, 0x7b, 0x34, 0x3c, 0x30, 0x29, 0x1e, 0x3c, 0xa6, 0x23, 0x41, 0x3c, 
  0xf0, 0xdf, 0x37, 0x3c, 0xd5, 0xf3, 0x49, 0x3c, 0x4e, 0x2e, 0x17, 0x3c, 
  0xc9, 0xda, 0x72, 0x3c, 0x9c, 0x55, 0xde, 0x3b, 0xb5, 0xf0, 0x94, 0x3b, 
  0x9e, 0xc5, 0x6e, 0x3c, 0xf3, 0xa5, 0xb9, 0x3b, 0x61, 0x00, 0x00, 0x00, 
  0x6d, 0x6f, 0x64, 0x65, 0x6c, 0x2f, 0x71, 0x75, 0x61, 0x6e, 0x74, 0x5f, 
  0x63, 0x6f, 0x6e, 0x76, 0x32, 0x64, 0x5f, 0x31, 0x2f, 0x43, 0x6f, 0x6e, 
  0x76, 0x32, 0x44, 0x3b, 0x6d, 0x6f, 0x64, 0x65, 0x6c, 0x2f, 0x71, 0x75, 
  0x61, 0x6e, 0x74, 0x5f, 0x63, 0x6f, 0x6e, 0x76, 0x32, 0x64, 0x5f, 0x31, 
  0x2f, 0x4c, 0x61, 0x73, 0x74, 0x56, 0x61, 0x6c, 0x75, 0x65, 0x51, 0x75, 
  0x61, 0x6e, 0x74, 0x2f, 0x46, 0x61, 0x6b, 0x65, 0x51, 0x75, 0x61, 0x6e, 
  0x74, 0x57, 0x69, 0x74, 0x68, 0x4d, 0x69, 0x6e, 0x4d, 0x61, 0x78, 0x56, 
  0x61, 0x72, 0x73, 0x50, 0x65, 0x72, 0x43, 0x68, 0x61, 0x6e, 0x6e, 0x65, 
  0x6c, 0x00, 0x00, 0x00, 0x04, 0x00, 0x00, 0x00, 0x20, 0x00, 0x00, 0x00, 
  0x01, 0x00, 0x00, 0x00, 0x01, 0x00, 0x00, 0x00, 0x10, 0x00, 0x00, 0x00, 
  0x2a, 0xf9, 0xff, 0xff, 0x00, 0x00, 0x00, 0x01, 0x18, 0x00, 0x00, 0x00, 
  0x28, 0x00, 0x00, 0x00, 0x48, 0x00, 0x00, 0x00, 0x08, 0x00, 0x00, 0x00, 
  0x00, 0x00, 0x00, 0x09, 0x68, 0x00, 0x00, 0x00, 0x04, 0x00, 0x00, 0x00, 
  0xff, 0xff, 0xff, 0xff, 0x10, 0x00, 0x00, 0x00, 0x10, 0x00, 0x00, 0x00, 
  0x10, 0x00, 0x00, 0x00, 0x14, 0xf9, 0xff, 0xff, 0x08, 0x00, 0x00, 0x00, 
  0x14, 0x00, 0x00, 0x00, 0x01, 0x00, 0x00, 0x00, 0xf7, 0xff, 0xff, 0xff, 
  0xff, 0xff, 0xff, 0xff, 0x00, 0x00, 0x00, 0x00, 0x01, 0x00, 0x00, 0x00, 
  0x43, 0x2f, 0x2a, 0x3e, 0x26, 0x00, 0x00, 0x00, 0x6d, 0x6f, 0x64, 0x65, 
  0x6c, 0x2f, 0x71, 0x75, 0x61, 0x6e, 0x74, 0x5f, 0x64, 0x65, 0x70, 0x74, 
  0x68, 0x77, 0x69, 0x73, 0x65, 0x5f, 0x63, 0x6f, 0x6e, 0x76, 0x32, 0x64, 
  0x2f, 0x64, 0x65, 0x70, 0x74, 0x68, 0x77, 0x69, 0x73, 0x65, 0x00, 0x00, 
  0x04, 0x00, 0x00, 0x00, 0x01, 0x00, 0x00, 0x00, 0x10, 0x00, 0x00, 0x00, 
  0x10, 0x00, 0x00, 0x00, 0x10, 0x00, 0x00, 0x00, 0x1a, 0xfa, 0xff, 0xff, 
  0x00, 0x00, 0x00, 0x01, 0x14, 0x00, 0x00, 0x00, 0xe4, 0x00, 0x00, 0x00, 
  0x07, 0x00, 0x00, 0x00, 0x00, 0x00, 0x00, 0x02, 0xf0, 0x00, 0x00, 0x00, 
  0x94, 0xf9, 0xff, 0xff, 0x08, 0x00, 0x00, 0x00, 0x88, 0x00, 0x00, 0x00, 
  0x10, 0x00, 0x00, 0x00, 0x00, 0x00, 0x00, 0x00, 0x00, 0x00, 0x00, 0x00, 
  0x00, 0x00, 0x00, 0x00, 0x00, 0x00, 0x00, 0x00, 0x00, 0x00, 0x00, 0x00, 
  0x00, 0x00, 0x00, 0x00, 0x00, 0x00, 0x00, 0x00, 0x00, 0x00, 0x00, 0x00, 
  0x00, 0x00, 0x00, 0x00, 0x00, 0x00, 0x00, 0x00, 0x00, 0x00, 0x00, 0x00, 
  0x00, 0x00, 0x00, 0x00, 0x00, 0x00, 0x00, 0x00, 0x00, 0x00, 0x00, 0x00, 
  0x00, 0x00, 0x00, 0x00, 0x00, 0x00, 0x00, 0x00, 0x00, 0x00, 0x00, 0x00, 
  0x00, 0x00, 0x00, 0x00, 0x00, 0x00, 0x00, 0x00, 0x00, 0x00, 0x00, 0x00, 
  0x00, 0x00, 0x00, 0x00, 0x00, 0x00, 0x00, 0x00, 0x00, 0x00, 0x00, 0x00, 
  0x00, 0x00, 0x00, 0x00, 0x00, 0x00, 0x00, 0x00, 0x00, 0x00, 0x00, 0x00, 
  0x00, 0x00, 0x00, 0x00, 0x00, 0x00, 0x00, 0x00, 0x00, 0x00, 0x00, 0x00, 
  0x00, 0x00, 0x00, 0x00, 0x00, 0x00, 0x00, 0x00, 0x00, 0x00, 0x00, 0x00, 
  0x10, 0x00, 0x00, 0x00, 0x84, 0x89, 0x8e, 0x39, 0x84, 0x89, 0x8e, 0x39, 
  0x84, 0x89, 0x8e, 0x39, 0x84, 0x89, 0x8e, 0x39, 0x84, 0x89, 0x8e, 0x39, 
  0x84, 0x89, 0x8e, 0x39, 0x84, 0x89, 0x8e, 0x39, 0x84, 0x89, 0x8e, 0x39, 
  0x84, 0x89, 0x8e, 0x39, 0x84, 0x89, 0x8e, 0x39, 0x84, 0x89, 0x8e, 0x39, 
  0x84, 0x89, 0x8e, 0x39, 0x84, 0x89, 0x8e, 0x39, 0x84, 0x89, 0x8e, 0x39, 
  0x84, 0x89, 0x8e, 0x39, 0x84, 0x89, 0x8e, 0x39, 0x12, 0x00, 0x00, 0x00, 
  0x74, 0x66, 0x6c, 0x2e, 0x70, 0x73, 0x65, 0x75, 0x64, 0x6f, 0x5f, 0x71, 
  0x63, 0x6f, 0x6e, 0x73, 0x74, 0x35, 0x00, 0x00, 0x01, 0x00, 0x00, 0x00, 
  0x10, 0x00, 0x00, 0x00, 0x2a, 0xfb, 0xff, 0xff, 0x00, 0x00, 0x00, 0x01, 
  0x28, 0x00, 0x00, 0x00, 0xfc, 0x00, 0x00, 0x00, 0x06, 0x00, 0x00, 0x00, 
  0x00, 0x00, 0x00, 0x09, 0x6c, 0x01, 0x00, 0x00, 0x00, 0x00, 0x12, 0x00, 
  0x10, 0x00, 0x00, 0x00, 0x00, 0x00, 0x0c, 0x00, 0x08, 0x00, 0x00, 0x00, 
  0x00, 0x00, 0x04, 0x00, 0x12, 0x00, 0x00, 0x00, 0x03, 0x00, 0x00, 0x00, 
  0x08, 0x00, 0x00, 0x00, 0x88, 0x00, 0x00, 0x00, 0x10, 0x00, 0x00, 0x00, 
  0x00, 0x00, 0x00, 0x00, 0x00, 0x00, 0x00, 0x00, 0x00, 0x00, 0x00, 0x00, 
  0x00, 0x00, 0x00, 0x00, 0x00, 0x00, 0x00, 0x00, 0x00, 0x00, 0x00, 0x00, 
  0x00, 0x00, 0x00, 0x00, 0x00, 0x00, 0x00, 0x00, 0x00, 0x00, 0x00, 0x00, 
  0x00, 0x00, 0x00, 0x00, 0x00, 0x00, 0x00, 0x00, 0x00, 0x00, 0x00, 0x00, 
  0x00, 0x00, 0x00, 0x00, 0x00, 0x00, 0x00, 0x00, 0x00, 0x00, 0x00, 0x00, 
  0x00, 0x00, 0x00, 0x00, 0x00, 0x00, 0x00, 0x00, 0x00, 0x00, 0x00, 0x00, 
  0x00, 0x00, 0x00, 0x00, 0x00, 0x00, 0x00, 0x00, 0x00, 0x00, 0x00, 0x00, 
  0x00, 0x00, 0x00, 0x00, 0x00, 0x00, 0x00, 0x00, 0x00, 0x00, 0x00, 0x00, 
  0x00, 0x00, 0x00, 0x00, 0x00, 0x00, 0x00, 0x00, 0x00, 0x00, 0x00, 0x00, 
  0x00, 0x00, 0x00, 0x00, 0x00, 0x00, 0x00, 0x00, 0x00, 0x00, 0x00, 0x00, 
  0x00, 0x00, 0x00, 0x00, 0x00, 0x00, 0x00, 0x00, 0x10, 0x00, 0x00, 0x00, 
  0x23, 0xdf, 0x49, 0x3c, 0x23, 0xdf, 0x49, 0x3c, 0x23, 0xdf, 0x49, 0x3c, 
  0x23, 0xdf, 0x49, 0x3c, 0x23, 0xdf, 0x49, 0x3c, 0x23, 0xdf, 0x49, 0x3c, 
  0x23, 0xdf, 0x49, 0x3c, 0x23, 0xdf, 0x49, 0x3c, 0x23, 0xdf, 0x49, 0x3c, 
  0x23, 0xdf, 0x49, 0x3c, 0x23, 0xdf, 0x49, 0x3c, 0x23, 0xdf, 0x49, 0x3c, 
  0x23, 0xdf, 0x49, 0x3c, 0x23, 0xdf, 0x49, 0x3c, 0x23, 0xdf, 0x49, 0x3c, 
  0x23, 0xdf, 0x49, 0x3c, 0x74, 0x00, 0x00, 0x00, 0x6d, 0x6f, 0x64, 0x65, 
  0x6c, 0x2f, 0x71, 0x75, 0x61, 0x6e, 0x74, 0x5f, 0x64, 0x65, 0x70, 0x74, 
  0x68, 0x77, 0x69, 0x73, 0x65, 0x5f, 0x63, 0x6f, 0x6e, 0x76, 0x32, 0x64, 
  0x2f, 0x64, 0x65, 0x70, 0x74, 0x68, 0x77, 0x69, 0x73, 0x65, 0x3b, 0x6d, 
  0x6f, 0x64, 0x65, 0x6c, 0x2f, 0x71, 0x75, 0x61, 0x6e, 0x74, 0x5f, 0x64, 
  0x65, 0x70, 0x74, 0x68, 0x77, 0x69, 0x73, 0x65, 0x5f, 0x63, 0x6f, 0x6e, 
  0x76, 0x32, 0x64, 0x2f, 0x4c, 0x61, 0x73, 0x74, 0x56, 0x61, 0x6c, 0x75, 
  0x65, 0x51, 0x75, 0x61, 0x6e, 0x74, 0x2f, 0x46, 0x61, 0x6b, 0x65, 0x51, 
  0x75, 0x61, 0x6e, 0x74, 0x57, 0x69, 0x74, 0x68, 0x4d, 0x69, 0x6e, 0x4d, 
  0x61, 0x78, 0x56, 0x61, 0x72, 0x73, 0x50, 0x65, 0x72, 0x43, 0x68, 0x61, 
  0x6e, 0x6e, 0x65, 0x6c, 0x00, 0x00, 0x00, 0x00, 0x04, 0x00, 0x00, 0x00, 
  0x01, 0x00, 0x00, 0x00, 0x03, 0x00, 0x00, 0x00, 0x03, 0x00, 0x00, 0x00, 
  0x10, 0x00, 0x00, 0x00, 0x6a, 0xfc, 0xff, 0xff, 0x00, 0x00, 0x00, 0x01, 
  0x18, 0x00, 0x00, 0x00, 0x28, 0x00, 0x00, 0x00, 0x48, 0x00, 0x00, 0x00, 
  0x05, 0x00, 0x00, 0x00, 0x00, 0x00, 0x00, 0x09, 0x90, 0x00, 0x00, 0x00, 
  0x04, 0x00, 0x00, 0x00, 0xff, 0xff, 0xff, 0xff, 0x20, 0x00, 0x00, 0x00, 
  0x20, 0x00, 0x00, 0x00, 0x10, 0x00, 0x00, 0x00, 0x54, 0xfc, 0xff, 0xff, 
  0x08, 0x00, 0x00, 0x00, 0x14, 0x00, 0x00, 0x00, 0x01, 0x00, 0x00, 0x00, 
  0x80, 0xff, 0xff, 0xff, 0xff, 0xff, 0xff, 0xff, 0x00, 0x00, 0x00, 0x00, 
  0x01, 0x00, 0x00, 0x00, 0x8b, 0xc1, 0xb4, 0x3c, 0x4d, 0x00, 0x00, 0x00, 
  0x6d, 0x6f, 0x64, 0x65, 0x6c, 0x2f, 0x71, 0x75, 0x61, 0x6e, 0x74, 0x5f, 
  0x63, 0x6f, 0x6e, 0x76, 0x32, 0x64, 0x2f, 0x52, 0x65, 0x6c, 0x75, 0x3b, 
  0x6d, 0x6f, 0x64, 0x65, 0x6c, 0x2f, 0x71, 0x75, 0x61, 0x6e, 0x74, 0x5f, 
  0x63, 0x6f, 0x6e, 0x76, 0x32, 0x64, 0x2f, 0x42, 0x69, 0x61, 0x73, 0x41, 
  0x64, 0x64, 0x3b, 0x6d, 0x6f, 0x64, 0x65, 0x6c, 0x2f, 0x71, 0x75, 0x61, 
  0x6e, 0x74, 0x5f, 0x63, 0x6f, 0x6e, 0x76, 0x32, 0x64, 0x2f, 0x43, 0x6f, 
  0x6e, 0x76, 0x32, 0x44, 0x3b, 0x00, 0x00, 0x00, 0x04, 0x00, 0x00, 0x00, 
  0x01, 0x00, 0x00, 0x00, 0x20, 0x00, 0x00, 0x00, 0x20, 0x00, 0x00, 0x00, 
  0x10, 0x00, 0x00, 0x00, 0x82, 0xfd, 0xff, 0xff, 0x00, 0x00, 0x00, 0x01, 
  0x14, 0x00, 0x00, 0x00, 0xe4, 0x00, 0x00, 0x00, 0x04, 0x00, 0x00, 0x00, 
  0x00, 0x00, 0x00, 0x02, 0xf0, 0x00, 0x00, 0x00, 0xfc, 0xfc, 0xff, 0xff, 
  0x08, 0x00, 0x00, 0x00, 0x88, 0x00, 0x00, 0x00, 0x10, 0x00, 0x00, 0x00, 
  0x00, 0x00, 0x00, 0x00, 0x00, 0x00, 0x00, 0x00, 0x00, 0x00, 0x00, 0x00, 
  0x00, 0x00, 0x00, 0x00, 0x00, 0x00, 0x00, 0x00, 0x00, 0x00, 0x00, 0x00, 
  0x00, 0x00, 0x00, 0x00, 0x00, 0x00, 0x00, 0x00, 0x00, 0x00, 0x00, 0x00, 
  0x00, 0x00, 0x00, 0x00, 0x00, 0x00, 0x00, 0x00, 0x00, 0x00, 0x00, 0x00, 
  0x00, 0x00, 0x00, 0x00, 0x00, 0x00, 0x00, 0x00, 0x00, 0x00, 0x00, 0x00, 
  0x00, 0x00, 0x00, 0x00, 0x00, 0x00, 0x00, 0x00, 0x00, 0x00, 0x00, 0x00, 
  0x00, 0x00, 0x00, 0x00, 0x00, 0x00, 0x00, 0x00, 0x00, 0x00, 0x00, 0x00, 
  0x00, 0x00, 0x00, 0x00, 0x00, 0x00, 0x00, 0x00, 0x00, 0x00, 0x00, 0x00, 
  0x00, 0x00, 0x00, 0x00, 0x00, 0x00, 0x00, 0x00, 0x00, 0x00, 0x00, 0x00, 
  0x00, 0x00, 0x00, 0x00, 0x00, 0x00, 0x00, 0x00, 0x00, 0x00, 0x00, 0x00, 
  0x00, 0x00, 0x00, 0x00, 0x00, 0x00, 0x00, 0x00, 0x10, 0x00, 0x00, 0x00, 
  0x71, 0x64, 0x51, 0x38, 0x45, 0x91, 0x06, 0x38, 0xb2, 0x82, 0x1c, 0x38, 
  0x82, 0xe5, 0x08, 0x38, 0x40, 0x66, 0x5d, 0x38, 0x4c, 0xf8, 0xec, 0x37, 
  0xfc, 0xe7, 0x15, 0x38, 0x50, 0xbb, 0x7e, 0x38, 0xd2, 0x87, 0x5a, 0x38, 
  0x45, 0xec, 0x6a, 0x38, 0x28, 0x78, 0x9c, 0x38, 0x84, 0xaa, 0x3f, 0x38, 
  0x42, 0xa0, 0x8e, 0x38, 0x8e, 0x7d, 0xa1, 0x38, 0x96, 0x3d, 0xae, 0x38, 
  0x13, 0xfd, 0x36, 0x38, 0x12, 0x00, 0x00, 0x00, 0x74, 0x66, 0x6c, 0x2e, 
  0x70, 0x73, 0x65, 0x75, 0x64, 0x6f, 0x5f, 0x71, 0x63, 0x6f, 0x6e, 0x73, 
  0x74, 0x32, 0x00, 0x00, 0x01, 0x00, 0x00, 0x00, 0x10, 0x00, 0x00, 0x00, 
  0x92, 0xfe, 0xff, 0xff, 0x00, 0x00, 0x00, 0x01, 0x14, 0x00, 0x00, 0x00, 
  0xe8, 0x00, 0x00, 0x00, 0x03, 0x00, 0x00, 0x00, 0x00, 0x00, 0x00, 0x09, 
  0x40, 0x01, 0x00, 0x00, 0x0c, 0xfe, 0xff, 0xff, 0x08, 0x00, 0x00, 0x00, 
  0x8c, 0x00, 0x00, 0x00, 0x10, 0x00, 0x00, 0x00, 0x00, 0x00, 0x00, 0x00, 
  0x00, 0x00, 0x00, 0x00, 0x00, 0x00, 0x00, 0x00, 0x00, 0x00, 0x00, 0x00, 
  0x00, 0x00, 0x00, 0x00, 0x00, 0x00, 0x00, 0x00, 0x00, 0x00, 0x00, 0x00, 
  0x00, 0x00, 0x00, 0x00, 0x00, 0x00, 0x00, 0x00, 0x00, 0x00, 0x00, 0x00, 
  0x00, 0x00, 0x00, 0x00, 0x00, 0x00, 0x00, 0x00, 0x00, 0x00, 0x00, 0x00, 
  0x00, 0x00, 0x00, 0x00, 0x00, 0x00, 0x00, 0x00, 0x00, 0x00, 0x00, 0x00, 
  0x00, 0x00, 0x00, 0x00, 0x00, 0x00, 0x00, 0x00, 0x00, 0x00, 0x00, 0x00, 
  0x00, 0x00, 0x00, 0x00, 0x00, 0x00, 0x00, 0x00, 0x00, 0x00, 0x00, 0x00, 
  0x00, 0x00, 0x00, 0x00, 0x00, 0x00, 0x00, 0x00, 0x00, 0x00, 0x00, 0x00, 
  0x00, 0x00, 0x00, 0x00, 0x00, 0x00, 0x00, 0x00, 0x00, 0x00, 0x00, 0x00, 
  0x00, 0x00, 0x00, 0x00, 0x00, 0x00, 0x00, 0x00, 0x00, 0x00, 0x00, 0x00, 
  0x00, 0x00, 0x00, 0x00, 0x00, 0x00, 0x00, 0x00, 0x10, 0x00, 0x00, 0x00, 
  0x0c, 0x93, 0xd0, 0x3b, 0xb3, 0x0a, 0x86, 0x3b, 0x2f, 0xe6, 0x9b, 0x3b, 
  0x9c, 0x5c, 0x88, 0x3b, 0xda, 0x88, 0xdc, 0x3b, 0x54, 0x0b, 0x6c, 0x3b, 
  0x14, 0x52, 0x95, 0x3b, 0x95, 0xbc, 0xfd, 0x3b, 0x4b, 0xad, 0xd9, 0x3b, 
  0x59, 0x01, 0xea, 0x3b, 0xaf, 0xdb, 0x1b, 0x3c, 0xda, 0xea, 0xbe, 0x3b, 
  0xa1, 0x11, 0x0e, 0x3c, 0x10, 0xdc, 0x20, 0x3c, 0x59, 0x8f, 0x2d, 0x3c, 
  0x16, 0x46, 0xb6, 0x3b, 0x5d, 0x00, 0x00, 0x00, 0x6d, 0x6f, 0x64, 0x65, 
  0x6c, 0x2f, 0x71, 0x75, 0x61, 0x6e, 0x74, 0x5f, 0x63, 0x6f, 0x6e, 0x76, 
  0x32, 0x64, 0x2f, 0x43, 0x6f, 0x6e, 0x76, 0x32, 0x44, 0x3b, 0x6d, 0x6f, 
  0x64, 0x65, 0x6c, 0x2f, 0x71, 0x75, 0x61, 0x6e, 0x74, 0x5f, 0x63, 0x6f, 
  0x6e, 0x76, 0x32, 0x64, 0x2f, 0x4c, 0x61, 0x73, 0x74, 0x56, 0x61, 0x6c, 
  0x75, 0x65, 0x51, 0x75, 0x61, 0x6e, 0x74, 0x2f, 0x46, 0x61, 0x6b, 0x65, 
  0x51, 0x75, 0x61, 0x6e, 0x74, 0x57, 0x69, 0x74, 0x68, 0x4d, 0x69, 0x6e, 
  0x4d, 0x61, 0x78, 0x56, 0x61, 0x72, 0x73, 0x50, 0x65, 0x72, 0x43, 0x68, 
  0x61, 0x6e, 0x6e, 0x65, 0x6c, 0x00, 0x00, 0x00, 0x04, 0x00, 0x00, 0x00, 
  0x10, 0x00, 0x00, 0x00, 0x03, 0x00, 0x00, 0x00, 0x03, 0x00, 0x00, 0x00, 
  0x01, 0x00, 0x00, 0x00, 0x00, 0x00, 0x16, 0x00, 0x1c, 0x00, 0x18, 0x00, 
  0x17, 0x00, 0x10, 0x00, 0x0c, 0x00, 0x08, 0x00, 0x00, 0x00, 0x00, 0x00, 
  0x00, 0x00, 0x07, 0x00, 0x16, 0x00, 0x00, 0x00, 0x00, 0x00, 0x00, 0x01, 
  0x18, 0x00, 0x00, 0x00, 0x18, 0x00, 0x00, 0x00, 0x02, 0x00, 0x00, 0x00, 
  0x00, 0x00, 0x00, 0x02, 0x20, 0x00, 0x00, 0x00, 0x04, 0x00, 0x04, 0x00, 
  0x04, 0x00, 0x00, 0x00, 0x0e, 0x00, 0x00, 0x00, 0x61, 0x72, 0x69, 0x74, 
  0x68, 0x2e, 0x63, 0x6f, 0x6e, 0x73, 0x74, 0x61, 0x6e, 0x74, 0x00, 0x00, 
  0x01, 0x00, 0x00, 0x00, 0x02, 0x00, 0x00, 0x00, 0x00, 0x00, 0x16, 0x00, 
  0x20, 0x00, 0x1c, 0x00, 0x1b, 0x00, 0x14, 0x00, 0x10, 0x00, 0x0c, 0x00, 
  0x00, 0x00, 0x00, 0x00, 0x08, 0x00, 0x07, 0x00, 0x16, 0x00, 0x00, 0x00, 
  0x00, 0x00, 0x00, 0x01, 0x18, 0x00, 0x00, 0x00, 0x34, 0x00, 0x00, 0x00, 
  0x50, 0x00, 0x00, 0x00, 0x01, 0x00, 0x00, 0x00, 0x00, 0x00, 0x00, 0x09, 
  0x64, 0x00, 0x00, 0x00, 0x04, 0x00, 0x00, 0x00, 0xff, 0xff, 0xff, 0xff, 
  0x40, 0x00, 0x00, 0x00, 0x40, 0x00, 0x00, 0x00, 0x01, 0x00, 0x00, 0x00, 
  0x0c, 0x00, 0x0c, 0x00, 0x00, 0x00, 0x00, 0x00, 0x08, 0x00, 0x04, 0x00, 
  0x0c, 0x00, 0x00, 0x00, 0x08, 0x00, 0x00, 0x00, 0x10, 0x00, 0x00, 0x00, 
  0x01, 0x00, 0x00, 0x00, 0x00, 0x00, 0x00, 0x00, 0x00, 0x00, 0x00, 0x00, 
  0x01, 0x00, 0x00, 0x00, 0x81, 0x80, 0x00, 0x3c, 0x19, 0x00, 0x00, 0x00, 
  0x73, 0x65, 0x72, 0x76, 0x69, 0x6e, 0x67, 0x5f, 0x64, 0x65, 0x66, 0x61, 
  0x75, 0x6c, 0x74, 0x5f, 0x69, 0x6e, 0x70, 0x75, 0x74, 0x5f, 0x31, 0x3a, 
  0x30, 0x00, 0x00, 0x00, 0x04, 0x00, 0x00, 0x00, 0x01, 0x00, 0x00, 0x00, 
  0x40, 0x00, 0x00, 0x00, 0x40, 0x00, 0x00, 0x00, 0x01, 0x00, 0x00, 0x00, 
  0x05, 0x00, 0x00, 0x00, 0x60, 0x00, 0x00, 0x00, 0x40, 0x00, 0x00, 0x00, 
  0x2c, 0x00, 0x00, 0x00, 0x18, 0x00, 0x00, 0x00, 0x04, 0x00, 0x00, 0x00, 
  0xc0, 0xff, 0xff, 0xff, 0x19, 0x00, 0x00, 0x00, 0x02, 0x00, 0x00, 0x00, 
  0x00, 0x00, 0x00, 0x19, 0xd0, 0xff, 0xff, 0xff, 0x09, 0x00, 0x00, 0x00, 
  0x04, 0x00, 0x00, 0x00, 0x00, 0x00, 0x00, 0x09, 0xe0, 0xff, 0xff, 0xff, 
  0x28, 0x00, 0x00, 0x00, 0x02, 0x00, 0x00, 0x00, 0x00, 0x00, 0x00, 0x28, 
  0xf0, 0xff, 0xff, 0xff, 0x04, 0x00, 0x00, 0x00, 0x03, 0x00, 0x00, 0x00, 
  0x00, 0x00, 0x00, 0x04, 0x0c, 0x00, 0x10, 0x00, 0x0f, 0x00, 0x00, 0x00, 
  0x08, 0x00, 0x04, 0x00, 0x0c, 0x00, 0x00, 0x00, 0x03, 0x00, 0x00, 0x00, 
  0x03, 0x00, 0x00, 0x00, 0x00, 0x00, 0x00, 0x03, 
};

unsigned int modelo_placa_int8_len = 14864;
